{
  "Ā": 0,
  "ā": 1,
  "Ă": 2,
  "ă": 3,
  "Ą": 4,
  "ą": 5,
  "Ć": 6,
  "ć": 7,
  "Ĉ": 8,
  "ĉ": 9,
  "Ċ": 10,
  "ĊĊ": 11,
  "ĊĠ": 12,
  "ċ": 13,
  "Č": 14,
  "č": 15,
  "Ď": 16,
  "ď": 17,
  "Đ": 18,
  "đ": 19,
  "Ē": 20,
  "ē": 21,
  "Ĕ": 22,
  "ĕ": 23,
  "Ė": 24,
  "ė": 25,
  "Ę": 26,
  "ę": 27,
  "Ě": 28,
  "ě": 29,
  "Ĝ": 30,
  "ĝ": 31,
  "Ğ": 32,
  "ğ": 33,
  "Ġ": 34,
  "ĠĊ": 35,
  "ĠĊĠ": 36,
  "ĠĠ": 37,
  "Ġ\"": 38,
  "Ġ'": 39,
  "Ġ''": 40,
  "Ġ-": 41,
  "Ġ1": 42,
  "Ġ10": 43,
  "Ġ2": 44,
  "Ġ3": 45,
  "Ġ4": 46,
  "Ġ5": 47,
  "ĠA": 48,
  "ĠAb": 49,
  "ĠAbbie": 50,
  "ĠAbby": 51,
  "ĠAbi": 52,
  "ĠAbigail": 53,
  "ĠAc": 54,
  "ĠAccidents": 55,
  "ĠAchoo": 56,
  "ĠAdam": 57,
  "ĠAfter": 58,
  "ĠAg": 59,
  "ĠAl": 60,
  "ĠAlex": 61,
  "ĠAlf": 62,
  "ĠAli": 63,
  "ĠAlice": 64,
  "ĠAll": 65,
  "ĠAlly": 66,
  "ĠAlong": 67,
  "ĠAlthough": 68,
  "ĠAlways": 69,
  "ĠAm": 70,
  "ĠAmanda": 71,
  "ĠAmber": 72,
  "ĠAmelia": 73,
  "ĠAmy": 74,
  "ĠAn": 75,
  "ĠAna": 76,
  "ĠAnd": 77,
  "ĠAndrew": 78,
  "ĠAndy": 79,
  "ĠAng": 80,
  "ĠAngel": 81,
  "ĠAnimal": 82,
  "ĠAnimals": 83,
  "ĠAnn": 84,
  "ĠAnna": 85,
  "ĠAnnabelle": 86,
  "ĠAnne": 87,
  "ĠAnnie": 88,
  "ĠAnother": 89,
  "ĠAnt": 90,
  "ĠAny": 91,
  "ĠApp": 92,
  "ĠApril": 93,
  "ĠAr": 94,
  "ĠAre": 95,
  "ĠAs": 96,
  "ĠAsh": 97,
  "ĠAshley": 98,
  "ĠAt": 99,
  "ĠAunt": 100,
  "ĠAuntie": 101,
  "ĠAva": 102,
  "ĠB": 103,
  "ĠBa": 104,
  "ĠBaa": 105,
  "ĠBaby": 106,
  "ĠBad": 107,
  "ĠBall": 108,
  "ĠBally": 109,
  "ĠBang": 110,
  "ĠBarky": 111,
  "ĠBarry": 112,
  "ĠBe": 113,
  "ĠBeaky": 114,
  "ĠBear": 115,
  "ĠBecause": 116,
  "ĠBecky": 117,
  "ĠBee": 118,
  "ĠBeef": 119,
  "ĠBeep": 120,
  "ĠBefore": 121,
  "ĠBehind": 122,
  "ĠBeing": 123,
  "ĠBella": 124,
  "ĠBen": 125,
  "ĠBenny": 126,
  "ĠBerry": 127,
  "ĠBert": 128,
  "ĠBess": 129,
  "ĠBessie": 130,
  "ĠBet": 131,
  "ĠBeth": 132,
  "ĠBetsy": 133,
  "ĠBetty": 134,
  "ĠBibi": 135,
  "ĠBig": 136,
  "ĠBiggie": 137,
  "ĠBiggy": 138,
  "ĠBill": 139,
  "ĠBilly": 140,
  "ĠBingo": 141,
  "ĠBinky": 142,
  "ĠBird": 143,
  "ĠBirdie": 144,
  "ĠBirds": 145,
  "ĠBirdy": 146,
  "ĠBirthday": 147,
  "ĠBl": 148,
  "ĠBlack": 149,
  "ĠBlink": 150,
  "ĠBlinky": 151,
  "ĠBloom": 152,
  "ĠBlue": 153,
  "ĠBluey": 154,
  "ĠBo": 155,
  "ĠBoat": 156,
  "ĠBob": 157,
  "ĠBobbie": 158,
  "ĠBobby": 159,
  "ĠBobo": 160,
  "ĠBones": 161,
  "ĠBonnie": 162,
  "ĠBoo": 163,
  "ĠBooks": 164,
  "ĠBoom": 165,
  "ĠBop": 166,
  "ĠBoth": 167,
  "ĠBoun": 168,
  "ĠBounce": 169,
  "ĠBouncy": 170,
  "ĠBow": 171,
  "ĠBr": 172,
  "ĠBra": 173,
  "ĠBree": 174,
  "ĠBrian": 175,
  "ĠBro": 176,
  "ĠBrown": 177,
  "ĠBrownie": 178,
  "ĠBu": 179,
  "ĠBub": 180,
  "ĠBubb": 181,
  "ĠBubba": 182,
  "ĠBubbles": 183,
  "ĠBubu": 184,
  "ĠBuddy": 185,
  "ĠBug": 186,
  "ĠBuggy": 187,
  "ĠBumpy": 188,
  "ĠBun": 189,
  "ĠBunny": 190,
  "ĠBuster": 191,
  "ĠBut": 192,
  "ĠButter": 193,
  "ĠBuzz": 194,
  "ĠBuzzy": 195,
  "ĠBy": 196,
  "ĠBye": 197,
  "ĠC": 198,
  "ĠCD": 199,
  "ĠCally": 200,
  "ĠCammy": 201,
  "ĠCan": 202,
  "ĠCandy": 203,
  "ĠCaptain": 204,
  "ĠCar": 205,
  "ĠCara": 206,
  "ĠCare": 207,
  "ĠCari": 208,
  "ĠCarl": 209,
  "ĠCarla": 210,
  "ĠCars": 211,
  "ĠCat": 212,
  "ĠCathy": 213,
  "ĠCats": 214,
  "ĠCatty": 215,
  "ĠCh": 216,
  "ĠCharlie": 217,
  "ĠCharlotte": 218,
  "ĠChe": 219,
  "ĠCher": 220,
  "ĠChess": 221,
  "ĠChew": 222,
  "ĠChewy": 223,
  "ĠChick": 224,
  "ĠChicky": 225,
  "ĠChip": 226,
  "ĠChirp": 227,
  "ĠChirpy": 228,
  "ĠChloe": 229,
  "ĠChr": 230,
  "ĠChris": 231,
  "ĠChrist": 232,
  "ĠChristmas": 233,
  "ĠCici": 234,
  "ĠCindy": 235,
  "ĠCircle": 236,
  "ĠCl": 237,
  "ĠClaire": 238,
  "ĠClara": 239,
  "ĠCle": 240,
  "ĠClean": 241,
  "ĠClimb": 242,
  "ĠClose": 243,
  "ĠCloud": 244,
  "ĠCo": 245,
  "ĠCoal": 246,
  "ĠCoby": 247,
  "ĠCoco": 248,
  "ĠCome": 249,
  "ĠComet": 250,
  "ĠCook": 251,
  "ĠCopper": 252,
  "ĠCow": 253,
  "ĠCr": 254,
  "ĠCra": 255,
  "ĠCrab": 256,
  "ĠCrabby": 257,
  "ĠCro": 258,
  "ĠCrusty": 259,
  "ĠCuddles": 260,
  "ĠCurious": 261,
  "ĠCut": 262,
  "ĠD": 263,
  "ĠDad": 264,
  "ĠDaddy": 265,
  "ĠDaisy": 266,
  "ĠDan": 267,
  "ĠDaniel": 268,
  "ĠDanny": 269,
  "ĠDara": 270,
  "ĠDare": 271,
  "ĠDave": 272,
  "ĠDavey": 273,
  "ĠDavid": 274,
  "ĠDay": 275,
  "ĠDe": 276,
  "ĠDeal": 277,
  "ĠDee": 278,
  "ĠDespite": 279,
  "ĠDid": 280,
  "ĠDin": 281,
  "ĠDina": 282,
  "ĠDino": 283,
  "ĠDizzy": 284,
  "ĠDo": 285,
  "ĠDoctor": 286,
  "ĠDodo": 287,
  "ĠDoes": 288,
  "ĠDog": 289,
  "ĠDoggy": 290,
  "ĠDolly": 291,
  "ĠDon": 292,
  "ĠDot": 293,
  "ĠDotty": 294,
  "ĠDr": 295,
  "ĠDragon": 296,
  "ĠDuck": 297,
  "ĠDucky": 298,
  "ĠDuke": 299,
  "ĠE": 300,
  "ĠEach": 301,
  "ĠEarth": 302,
  "ĠEat": 303,
  "ĠEd": 304,
  "ĠEddie": 305,
  "ĠEl": 306,
  "ĠElephant": 307,
  "ĠEliz": 308,
  "ĠEliza": 309,
  "ĠElla": 310,
  "ĠElle": 311,
  "ĠEllie": 312,
  "ĠElly": 313,
  "ĠEls": 314,
  "ĠElsa": 315,
  "ĠElsie": 316,
  "ĠEm": 317,
  "ĠEmily": 318,
  "ĠEmma": 319,
  "ĠEmmy": 320,
  "ĠEnd": 321,
  "ĠEnjoy": 322,
  "ĠEric": 323,
  "ĠEva": 324,
  "ĠEven": 325,
  "ĠEventually": 326,
  "ĠEvery": 327,
  "ĠEverybody": 328,
  "ĠEveryday": 329,
  "ĠEveryone": 330,
  "ĠEverything": 331,
  "ĠEverywhere": 332,
  "ĠEx": 333,
  "ĠExcited": 334,
  "ĠF": 335,
  "ĠFairy": 336,
  "ĠFarmer": 337,
  "ĠFaye": 338,
  "ĠFe": 339,
  "ĠFel": 340,
  "ĠFelix": 341,
  "ĠFido": 342,
  "ĠFifi": 343,
  "ĠFighting": 344,
  "ĠFin": 345,
  "ĠFinally": 346,
  "ĠFind": 347,
  "ĠFinn": 348,
  "ĠFinny": 349,
  "ĠFiona": 350,
  "ĠFire": 351,
  "ĠFirst": 352,
  "ĠFish": 353,
  "ĠFishy": 354,
  "ĠFix": 355,
  "ĠFl": 356,
  "ĠFlap": 357,
  "ĠFlappy": 358,
  "ĠFle": 359,
  "ĠFlick": 360,
  "ĠFlicker": 361,
  "ĠFlo": 362,
  "ĠFlop": 363,
  "ĠFloppy": 364,
  "ĠFlopsy": 365,
  "ĠFlora": 366,
  "ĠFluffy": 367,
  "ĠFlutter": 368,
  "ĠFly": 369,
  "ĠFo": 370,
  "ĠFollow": 371,
  "ĠFor": 372,
  "ĠFox": 373,
  "ĠFoxy": 374,
  "ĠFr": 375,
  "ĠFrank": 376,
  "ĠFrankie": 377,
  "ĠFred": 378,
  "ĠFreddie": 379,
  "ĠFreddy": 380,
  "ĠFriend": 381,
  "ĠFriends": 382,
  "ĠFrog": 383,
  "ĠFroggy": 384,
  "ĠFrom": 385,
  "ĠFrosty": 386,
  "ĠFu": 387,
  "ĠFuzzy": 388,
  "ĠG": 389,
  "ĠGabby": 390,
  "ĠGary": 391,
  "ĠGeorge": 392,
  "ĠGerry": 393,
  "ĠGet": 394,
  "ĠGiant": 395,
  "ĠGigi": 396,
  "ĠGill": 397,
  "ĠGilly": 398,
  "ĠGina": 399,
  "ĠGive": 400,
  "ĠGl": 401,
  "ĠGlow": 402,
  "ĠGo": 403,
  "ĠGod": 404,
  "ĠGogo": 405,
  "ĠGold": 406,
  "ĠGood": 407,
  "ĠGoodbye": 408,
  "ĠGr": 409,
  "ĠGra": 410,
  "ĠGrace": 411,
  "ĠGracie": 412,
  "ĠGrand": 413,
  "ĠGrandma": 414,
  "ĠGrandpa": 415,
  "ĠGranny": 416,
  "ĠGray": 417,
  "ĠGreen": 418,
  "ĠGreeny": 419,
  "ĠGrump": 420,
  "ĠGrumpy": 421,
  "ĠGus": 422,
  "ĠH": 423,
  "ĠHalloween": 424,
  "ĠHannah": 425,
  "ĠHappy": 426,
  "ĠHar": 427,
  "ĠHarry": 428,
  "ĠHave": 429,
  "ĠHe": 430,
  "ĠHel": 431,
  "ĠHelen": 432,
  "ĠHeli": 433,
  "ĠHello": 434,
  "ĠHelp": 435,
  "ĠHelping": 436,
  "ĠHenny": 437,
  "ĠHenry": 438,
  "ĠHer": 439,
  "ĠHerb": 440,
  "ĠHere": 441,
  "ĠHi": 442,
  "ĠHippy": 443,
  "ĠHis": 444,
  "ĠHo": 445,
  "ĠHold": 446,
  "ĠHolly": 447,
  "ĠHoney": 448,
  "ĠHoot": 449,
  "ĠHop": 450,
  "ĠHope": 451,
  "ĠHopper": 452,
  "ĠHoppy": 453,
  "ĠHops": 454,
  "ĠHor": 455,
  "ĠHorsie": 456,
  "ĠHow": 457,
  "ĠHowever": 458,
  "ĠHug": 459,
  "ĠHurry": 460,
  "ĠI": 461,
  "ĠIce": 462,
  "ĠIcy": 463,
  "ĠIf": 464,
  "ĠIm": 465,
  "ĠImmediately": 466,
  "ĠIn": 467,
  "ĠInch": 468,
  "ĠInky": 469,
  "ĠInside": 470,
  "ĠInstead": 471,
  "ĠIron": 472,
  "ĠIs": 473,
  "ĠIsn": 474,
  "ĠIt": 475,
  "ĠIts": 476,
  "ĠIzzy": 477,
  "ĠJ": 478,
  "ĠJack": 479,
  "ĠJackie": 480,
  "ĠJacky": 481,
  "ĠJacob": 482,
  "ĠJake": 483,
  "ĠJames": 484,
  "ĠJamie": 485,
  "ĠJan": 486,
  "ĠJane": 487,
  "ĠJaney": 488,
  "ĠJanie": 489,
  "ĠJason": 490,
  "ĠJax": 491,
  "ĠJay": 492,
  "ĠJazz": 493,
  "ĠJe": 494,
  "ĠJean": 495,
  "ĠJeff": 496,
  "ĠJelly": 497,
  "ĠJen": 498,
  "ĠJenn": 499,
  "ĠJenna": 500,
  "ĠJenny": 501,
  "ĠJerry": 502,
  "ĠJess": 503,
  "ĠJessica": 504,
  "ĠJessie": 505,
  "ĠJet": 506,
  "ĠJill": 507,
  "ĠJilly": 508,
  "ĠJim": 509,
  "ĠJimmy": 510,
  "ĠJo": 511,
  "ĠJoan": 512,
  "ĠJody": 513,
  "ĠJoe": 514,
  "ĠJoey": 515,
  "ĠJohn": 516,
  "ĠJohnny": 517,
  "ĠJohnson": 518,
  "ĠJojo": 519,
  "ĠJoke": 520,
  "ĠJolly": 521,
  "ĠJon": 522,
  "ĠJones": 523,
  "ĠJonny": 524,
  "ĠJosh": 525,
  "ĠJoy": 526,
  "ĠJu": 527,
  "ĠJudge": 528,
  "ĠJudy": 529,
  "ĠJul": 530,
  "ĠJulia": 531,
  "ĠJulie": 532,
  "ĠJump": 533,
  "ĠJumpy": 534,
  "ĠJune": 535,
  "ĠJust": 536,
  "ĠK": 537,
  "ĠKaren": 538,
  "ĠKate": 539,
  "ĠKatie": 540,
  "ĠKaty": 541,
  "ĠKay": 542,
  "ĠKayla": 543,
  "ĠKeep": 544,
  "ĠKelly": 545,
  "ĠKevin": 546,
  "ĠKids": 547,
  "ĠKiki": 548,
  "ĠKim": 549,
  "ĠKing": 550,
  "ĠKip": 551,
  "ĠKit": 552,
  "ĠKitty": 553,
  "ĠKn": 554,
  "ĠL": 555,
  "ĠLand": 556,
  "ĠLarry": 557,
  "ĠLaser": 558,
  "ĠLater": 559,
  "ĠLaura": 560,
  "ĠLaw": 561,
  "ĠLe": 562,
  "ĠLeave": 563,
  "ĠLee": 564,
  "ĠLena": 565,
  "ĠLenny": 566,
  "ĠLeo": 567,
  "ĠLet": 568,
  "ĠLi": 569,
  "ĠLia": 570,
  "ĠLiam": 571,
  "ĠLife": 572,
  "ĠLight": 573,
  "ĠLightning": 574,
  "ĠLike": 575,
  "ĠLila": 576,
  "ĠLilly": 577,
  "ĠLily": 578,
  "ĠLina": 579,
  "ĠLinda": 580,
  "ĠLion": 581,
  "ĠLisa": 582,
  "ĠListen": 583,
  "ĠLittle": 584,
  "ĠLiz": 585,
  "ĠLiza": 586,
  "ĠLizzie": 587,
  "ĠLizzy": 588,
  "ĠLola": 589,
  "ĠLook": 590,
  "ĠLooking": 591,
  "ĠLoop": 592,
  "ĠLots": 593,
  "ĠLou": 594,
  "ĠLouise": 595,
  "ĠLove": 596,
  "ĠLu": 597,
  "ĠLuc": 598,
  "ĠLuckily": 599,
  "ĠLucky": 600,
  "ĠLucy": 601,
  "ĠLuke": 602,
  "ĠLulu": 603,
  "ĠLuna": 604,
  "ĠLung": 605,
  "ĠM": 606,
  "ĠMa": 607,
  "ĠMabel": 608,
  "ĠMad": 609,
  "ĠMaddie": 610,
  "ĠMaddy": 611,
  "ĠMae": 612,
  "ĠMag": 613,
  "ĠMaggie": 614,
  "ĠMagic": 615,
  "ĠMaisy": 616,
  "ĠMake": 617,
  "ĠMama": 618,
  "ĠMan": 619,
  "ĠMandy": 620,
  "ĠMany": 621,
  "ĠMar": 622,
  "ĠMarch": 623,
  "ĠMaria": 624,
  "ĠMarie": 625,
  "ĠMark": 626,
  "ĠMartha": 627,
  "ĠMary": 628,
  "ĠMat": 629,
  "ĠMatch": 630,
  "ĠMath": 631,
  "ĠMatilda": 632,
  "ĠMatt": 633,
  "ĠMax": 634,
  "ĠMay": 635,
  "ĠMaya": 636,
  "ĠMaybe": 637,
  "ĠMe": 638,
  "ĠMeg": 639,
  "ĠMegan": 640,
  "ĠMel": 641,
  "ĠMelissa": 642,
  "ĠMia": 643,
  "ĠMic": 644,
  "ĠMichael": 645,
  "ĠMicroscope": 646,
  "ĠMike": 647,
  "ĠMikey": 648,
  "ĠMila": 649,
  "ĠMillie": 650,
  "ĠMilly": 651,
  "ĠMilo": 652,
  "ĠMimi": 653,
  "ĠMin": 654,
  "ĠMina": 655,
  "ĠMindy": 656,
  "ĠMine": 657,
  "ĠMint": 658,
  "ĠMira": 659,
  "ĠMiss": 660,
  "ĠMissile": 661,
  "ĠMissy": 662,
  "ĠMittens": 663,
  "ĠMix": 664,
  "ĠMixie": 665,
  "ĠMixy": 666,
  "ĠMo": 667,
  "ĠMole": 668,
  "ĠMolly": 669,
  "ĠMom": 670,
  "ĠMomma": 671,
  "ĠMommy": 672,
  "ĠMomo": 673,
  "ĠMon": 674,
  "ĠMonkey": 675,
  "ĠMonster": 676,
  "ĠMoo": 677,
  "ĠMoon": 678,
  "ĠMoppy": 679,
  "ĠMore": 680,
  "ĠMother": 681,
  "ĠMouse": 682,
  "ĠMousy": 683,
  "ĠMr": 684,
  "ĠMrs": 685,
  "ĠMuffin": 686,
  "ĠMum": 687,
  "ĠMummy": 688,
  "ĠMus": 689,
  "ĠMy": 690,
  "ĠN": 691,
  "ĠNana": 692,
  "ĠNancy": 693,
  "ĠNavy": 694,
  "ĠNe": 695,
  "ĠNear": 696,
  "ĠNever": 697,
  "ĠNext": 698,
  "ĠNice": 699,
  "ĠNick": 700,
  "ĠNina": 701,
  "ĠNo": 702,
  "ĠNobody": 703,
  "ĠNora": 704,
  "ĠNot": 705,
  "ĠNothing": 706,
  "ĠNow": 707,
  "ĠNurse": 708,
  "ĠNut": 709,
  "ĠNutty": 710,
  "ĠO": 711,
  "ĠOK": 712,
  "ĠOf": 713,
  "ĠOff": 714,
  "ĠOh": 715,
  "ĠOkay": 716,
  "ĠOl": 717,
  "ĠOld": 718,
  "ĠOlive": 719,
  "ĠOliver": 720,
  "ĠOlivia": 721,
  "ĠOllie": 722,
  "ĠOlly": 723,
  "ĠOn": 724,
  "ĠOnce": 725,
  "ĠOne": 726,
  "ĠOnly": 727,
  "ĠOpen": 728,
  "ĠOr": 729,
  "ĠOrange": 730,
  "ĠOt": 731,
  "ĠOther": 732,
  "ĠOtherwise": 733,
  "ĠOtto": 734,
  "ĠOur": 735,
  "ĠOut": 736,
  "ĠOutside": 737,
  "ĠOver": 738,
  "ĠOw": 739,
  "ĠOwl": 740,
  "ĠOxy": 741,
  "ĠOxygen": 742,
  "ĠP": 743,
  "ĠPam": 744,
  "ĠPandy": 745,
  "ĠPapa": 746,
  "ĠPark": 747,
  "ĠPast": 748,
  "ĠPat": 749,
  "ĠPatch": 750,
  "ĠPatty": 751,
  "ĠPaul": 752,
  "ĠPaws": 753,
  "ĠPe": 754,
  "ĠPeace": 755,
  "ĠPeanut": 756,
  "ĠPeep": 757,
  "ĠPeggy": 758,
  "ĠPen": 759,
  "ĠPenelope": 760,
  "ĠPenny": 761,
  "ĠPeople": 762,
  "ĠPepper": 763,
  "ĠPer": 764,
  "ĠPet": 765,
  "ĠPete": 766,
  "ĠPeter": 767,
  "ĠPh": 768,
  "ĠPhil": 769,
  "ĠPick": 770,
  "ĠPig": 771,
  "ĠPiggy": 772,
  "ĠPinch": 773,
  "ĠPinchy": 774,
  "ĠPine": 775,
  "ĠPink": 776,
  "ĠPinky": 777,
  "ĠPip": 778,
  "ĠPipp": 779,
  "ĠPippa": 780,
  "ĠPippin": 781,
  "ĠPl": 782,
  "ĠPlay": 783,
  "ĠPlaying": 784,
  "ĠPlease": 785,
  "ĠPo": 786,
  "ĠPolly": 787,
  "ĠPoor": 788,
  "ĠPop": 789,
  "ĠPoppy": 790,
  "ĠPot": 791,
  "ĠPr": 792,
  "ĠPretty": 793,
  "ĠPrin": 794,
  "ĠPrince": 795,
  "ĠPrincess": 796,
  "ĠPuff": 797,
  "ĠPuffy": 798,
  "ĠPup": 799,
  "ĠPuppy": 800,
  "ĠPut": 801,
  "ĠQ": 802,
  "ĠQu": 803,
  "ĠQuack": 804,
  "ĠQuacky": 805,
  "ĠQueen": 806,
  "ĠQuick": 807,
  "ĠQuickly": 808,
  "ĠR": 809,
  "ĠRabbit": 810,
  "ĠRace": 811,
  "ĠRachel": 812,
  "ĠRain": 813,
  "ĠRainbow": 814,
  "ĠRalph": 815,
  "ĠRara": 816,
  "ĠRatty": 817,
  "ĠRaven": 818,
  "ĠRavi": 819,
  "ĠRay": 820,
  "ĠRazor": 821,
  "ĠRe": 822,
  "ĠReady": 823,
  "ĠRebecca": 824,
  "ĠRed": 825,
  "ĠReddy": 826,
  "ĠRel": 827,
  "ĠReliable": 828,
  "ĠRemember": 829,
  "ĠRemy": 830,
  "ĠRes": 831,
  "ĠRex": 832,
  "ĠRh": 833,
  "ĠRia": 834,
  "ĠRich": 835,
  "ĠRicky": 836,
  "ĠRight": 837,
  "ĠRing": 838,
  "ĠRiri": 839,
  "ĠRita": 840,
  "ĠRo": 841,
  "ĠRoar": 842,
  "ĠRob": 843,
  "ĠRobbie": 844,
  "ĠRobby": 845,
  "ĠRobert": 846,
  "ĠRobo": 847,
  "ĠRock": 848,
  "ĠRocky": 849,
  "ĠRoger": 850,
  "ĠRollie": 851,
  "ĠRolly": 852,
  "ĠRon": 853,
  "ĠRoo": 854,
  "ĠRos": 855,
  "ĠRosa": 856,
  "ĠRose": 857,
  "ĠRosie": 858,
  "ĠRover": 859,
  "ĠRu": 860,
  "ĠRub": 861,
  "ĠRuby": 862,
  "ĠRudy": 863,
  "ĠRuff": 864,
  "ĠRufus": 865,
  "ĠRun": 866,
  "ĠRusty": 867,
  "ĠRuth": 868,
  "ĠRyan": 869,
  "ĠS": 870,
  "ĠSad": 871,
  "ĠSadie": 872,
  "ĠSadly": 873,
  "ĠSal": 874,
  "ĠSally": 875,
  "ĠSam": 876,
  "ĠSamantha": 877,
  "ĠSammy": 878,
  "ĠSandy": 879,
  "ĠSanta": 880,
  "ĠSara": 881,
  "ĠSarah": 882,
  "ĠSasha": 883,
  "ĠSaturday": 884,
  "ĠSay": 885,
  "ĠSc": 886,
  "ĠScissors": 887,
  "ĠSe": 888,
  "ĠSee": 889,
  "ĠSeeing": 890,
  "ĠSettle": 891,
  "ĠSh": 892,
  "ĠShadow": 893,
  "ĠShare": 894,
  "ĠSharing": 895,
  "ĠShark": 896,
  "ĠSharp": 897,
  "ĠShe": 898,
  "ĠShelly": 899,
  "ĠShow": 900,
  "ĠSil": 901,
  "ĠSilver": 902,
  "ĠSimon": 903,
  "ĠSince": 904,
  "ĠSing": 905,
  "ĠSir": 906,
  "ĠSk": 907,
  "ĠSkelly": 908,
  "ĠSkip": 909,
  "ĠSky": 910,
  "ĠSl": 911,
  "ĠSleep": 912,
  "ĠSleepy": 913,
  "ĠSlinky": 914,
  "ĠSlow": 915,
  "ĠSlowly": 916,
  "ĠSm": 917,
  "ĠSmith": 918,
  "ĠSmo": 919,
  "ĠSmoke": 920,
  "ĠSn": 921,
  "ĠSnake": 922,
  "ĠSnap": 923,
  "ĠSnow": 924,
  "ĠSnowman": 925,
  "ĠSnowy": 926,
  "ĠSnuggles": 927,
  "ĠSo": 928,
  "ĠSocky": 929,
  "ĠSof": 930,
  "ĠSofia": 931,
  "ĠSofty": 932,
  "ĠSome": 933,
  "ĠSomeone": 934,
  "ĠSomet": 935,
  "ĠSomething": 936,
  "ĠSometimes": 937,
  "ĠSoon": 938,
  "ĠSophia": 939,
  "ĠSophie": 940,
  "ĠSorry": 941,
  "ĠSp": 942,
  "ĠSpark": 943,
  "ĠSparkle": 944,
  "ĠSparky": 945,
  "ĠSpe": 946,
  "ĠSpeed": 947,
  "ĠSpeedy": 948,
  "ĠSpicy": 949,
  "ĠSpidey": 950,
  "ĠSpike": 951,
  "ĠSpin": 952,
  "ĠSpirit": 953,
  "ĠSplash": 954,
  "ĠSpot": 955,
  "ĠSpring": 956,
  "ĠSqu": 957,
  "ĠSque": 958,
  "ĠSqueak": 959,
  "ĠSqueaky": 960,
  "ĠSquee": 961,
  "ĠSquirrel": 962,
  "ĠSt": 963,
  "ĠStan": 964,
  "ĠStar": 965,
  "ĠStartled": 966,
  "ĠStay": 967,
  "ĠSte": 968,
  "ĠStella": 969,
  "ĠStep": 970,
  "ĠSteve": 971,
  "ĠSteven": 972,
  "ĠStill": 973,
  "ĠStitch": 974,
  "ĠStop": 975,
  "ĠStretch": 976,
  "ĠSu": 977,
  "ĠSuddenly": 978,
  "ĠSue": 979,
  "ĠSugar": 980,
  "ĠSun": 981,
  "ĠSunday": 982,
  "ĠSundays": 983,
  "ĠSunny": 984,
  "ĠSuper": 985,
  "ĠSure": 986,
  "ĠSusan": 987,
  "ĠSusie": 988,
  "ĠSuzie": 989,
  "ĠSuzy": 990,
  "ĠSw": 991,
  "ĠSweet": 992,
  "ĠSwim": 993,
  "ĠT": 994,
  "ĠTV": 995,
  "ĠTake": 996,
  "ĠTaking": 997,
  "ĠTammy": 998,
  "ĠTara": 999,
  "ĠTe": 1000,
  "ĠTears": 1001,
  "ĠTed": 1002,
  "ĠTeddy": 1003,
  "ĠTell": 1004,
  "ĠTerry": 1005,
  "ĠTess": 1006,
  "ĠTessa": 1007,
  "ĠTh": 1008,
  "ĠThank": 1009,
  "ĠThanks": 1010,
  "ĠThat": 1011,
  "ĠThe": 1012,
  "ĠTheir": 1013,
  "ĠThen": 1014,
  "ĠThere": 1015,
  "ĠThese": 1016,
  "ĠThey": 1017,
  "ĠThings": 1018,
  "ĠThis": 1019,
  "ĠThomas": 1020,
  "ĠThose": 1021,
  "ĠThunder": 1022,
  "ĠTia": 1023,
  "ĠTiger": 1024,
  "ĠTilly": 1025,
  "ĠTim": 1026,
  "ĠTime": 1027,
  "ĠTimmy": 1028,
  "ĠTina": 1029,
  "ĠTiny": 1030,
  "ĠTip": 1031,
  "ĠTippy": 1032,
  "ĠTiti": 1033,
  "ĠTo": 1034,
  "ĠToby": 1035,
  "ĠToday": 1036,
  "ĠTodd": 1037,
  "ĠTogether": 1038,
  "ĠTom": 1039,
  "ĠTommy": 1040,
  "ĠTomorrow": 1041,
  "ĠTony": 1042,
  "ĠToo": 1043,
  "ĠToot": 1044,
  "ĠTooth": 1045,
  "ĠToto": 1046,
  "ĠToys": 1047,
  "ĠTr": 1048,
  "ĠTra": 1049,
  "ĠTre": 1050,
  "ĠTree": 1051,
  "ĠTri": 1052,
  "ĠTriangle": 1053,
  "ĠTruck": 1054,
  "ĠTrucky": 1055,
  "ĠTrue": 1056,
  "ĠTrust": 1057,
  "ĠTry": 1058,
  "ĠTuesday": 1059,
  "ĠTuna": 1060,
  "ĠTurt": 1061,
  "ĠTurtle": 1062,
  "ĠTw": 1063,
  "ĠTweet": 1064,
  "ĠTweetie": 1065,
  "ĠTweety": 1066,
  "ĠTwinkle": 1067,
  "ĠTwist": 1068,
  "ĠTwo": 1069,
  "ĠTyler": 1070,
  "ĠU": 1071,
  "ĠUn": 1072,
  "ĠUncle": 1073,
  "ĠUnder": 1074,
  "ĠUnfortunately": 1075,
  "ĠUni": 1076,
  "ĠUniversity": 1077,
  "ĠUntil": 1078,
  "ĠUp": 1079,
  "ĠUse": 1080,
  "ĠV": 1081,
  "ĠVelvet": 1082,
  "ĠVicky": 1083,
  "ĠViolet": 1084,
  "ĠVivi": 1085,
  "ĠVroom": 1086,
  "ĠW": 1087,
  "ĠWaffle": 1088,
  "ĠWait": 1089,
  "ĠWally": 1090,
  "ĠWant": 1091,
  "ĠWatch": 1092,
  "ĠWater": 1093,
  "ĠWe": 1094,
  "ĠWednesday": 1095,
  "ĠWelcome": 1096,
  "ĠWell": 1097,
  "ĠWendy": 1098,
  "ĠWh": 1099,
  "ĠWhale": 1100,
  "ĠWhat": 1101,
  "ĠWhee": 1102,
  "ĠWhen": 1103,
  "ĠWhenever": 1104,
  "ĠWhere": 1105,
  "ĠWhich": 1106,
  "ĠWhile": 1107,
  "ĠWhiskers": 1108,
  "ĠWhistle": 1109,
  "ĠWhite": 1110,
  "ĠWho": 1111,
  "ĠWhoever": 1112,
  "ĠWhy": 1113,
  "ĠWiggly": 1114,
  "ĠWil": 1115,
  "ĠWill": 1116,
  "ĠWilliam": 1117,
  "ĠWilly": 1118,
  "ĠWin": 1119,
  "ĠWink": 1120,
  "ĠWinky": 1121,
  "ĠWisdom": 1122,
  "ĠWise": 1123,
  "ĠWith": 1124,
  "ĠWithout": 1125,
  "ĠWo": 1126,
  "ĠWolf": 1127,
  "ĠWonder": 1128,
  "ĠWoo": 1129,
  "ĠWoof": 1130,
  "ĠWoolly": 1131,
  "ĠWooly": 1132,
  "ĠWorking": 1133,
  "ĠWould": 1134,
  "ĠX": 1135,
  "ĠY": 1136,
  "ĠYawn": 1137,
  "ĠYellow": 1138,
  "ĠYes": 1139,
  "ĠYesterday": 1140,
  "ĠYet": 1141,
  "ĠYoga": 1142,
  "ĠYou": 1143,
  "ĠYour": 1144,
  "ĠYummy": 1145,
  "ĠZ": 1146,
  "ĠZack": 1147,
  "ĠZara": 1148,
  "ĠZee": 1149,
  "ĠZero": 1150,
  "ĠZiggy": 1151,
  "ĠZigzag": 1152,
  "ĠZip": 1153,
  "ĠZipper": 1154,
  "ĠZippy": 1155,
  "ĠZoe": 1156,
  "ĠZoey": 1157,
  "ĠZog": 1158,
  "ĠZoom": 1159,
  "ĠZoomy": 1160,
  "Ġa": 1161,
  "Ġab": 1162,
  "Ġability": 1163,
  "Ġable": 1164,
  "Ġabo": 1165,
  "Ġaboard": 1166,
  "Ġabout": 1167,
  "Ġabove": 1168,
  "Ġac": 1169,
  "Ġacce": 1170,
  "Ġaccept": 1171,
  "Ġaccepted": 1172,
  "Ġaccident": 1173,
  "Ġaccidentally": 1174,
  "Ġaccidents": 1175,
  "Ġaccom": 1176,
  "Ġaccompl": 1177,
  "Ġaccomplish": 1178,
  "Ġaccomplished": 1179,
  "Ġaccomplishment": 1180,
  "Ġache": 1181,
  "Ġachie": 1182,
  "Ġachieve": 1183,
  "Ġachieved": 1184,
  "Ġacorn": 1185,
  "Ġacorns": 1186,
  "Ġacross": 1187,
  "Ġact": 1188,
  "Ġacted": 1189,
  "Ġacting": 1190,
  "Ġaction": 1191,
  "Ġactions": 1192,
  "Ġactiv": 1193,
  "Ġactive": 1194,
  "Ġactivities": 1195,
  "Ġactivity": 1196,
  "Ġactor": 1197,
  "Ġacts": 1198,
  "Ġactually": 1199,
  "Ġad": 1200,
  "Ġadd": 1201,
  "Ġadded": 1202,
  "Ġadding": 1203,
  "Ġaddress": 1204,
  "Ġadds": 1205,
  "Ġadm": 1206,
  "Ġadmir": 1207,
  "Ġadmiration": 1208,
  "Ġadmire": 1209,
  "Ġadmired": 1210,
  "Ġadmiring": 1211,
  "Ġadmit": 1212,
  "Ġador": 1213,
  "Ġadorable": 1214,
  "Ġadult": 1215,
  "Ġadults": 1216,
  "Ġadvent": 1217,
  "Ġadventur": 1218,
  "Ġadventure": 1219,
  "Ġadventures": 1220,
  "Ġadventurous": 1221,
  "Ġadvice": 1222,
  "Ġaeropl": 1223,
  "Ġaeroplane": 1224,
  "Ġaeroplanes": 1225,
  "Ġaf": 1226,
  "Ġafar": 1227,
  "Ġaff": 1228,
  "Ġaffect": 1229,
  "Ġafford": 1230,
  "Ġafraid": 1231,
  "Ġafter": 1232,
  "Ġafternoon": 1233,
  "Ġafterwards": 1234,
  "Ġag": 1235,
  "Ġagain": 1236,
  "Ġagainst": 1237,
  "Ġage": 1238,
  "Ġago": 1239,
  "Ġagre": 1240,
  "Ġagree": 1241,
  "Ġagreed": 1242,
  "Ġagreement": 1243,
  "Ġagrees": 1244,
  "Ġahead": 1245,
  "Ġaim": 1246,
  "Ġaimed": 1247,
  "Ġair": 1248,
  "Ġairpl": 1249,
  "Ġairplane": 1250,
  "Ġairport": 1251,
  "Ġais": 1252,
  "Ġaisle": 1253,
  "Ġal": 1254,
  "Ġalarm": 1255,
  "Ġalert": 1256,
  "Ġalien": 1257,
  "Ġaliens": 1258,
  "Ġalive": 1259,
  "Ġall": 1260,
  "Ġalley": 1261,
  "Ġalligator": 1262,
  "Ġalligators": 1263,
  "Ġallow": 1264,
  "Ġallowed": 1265,
  "Ġallowing": 1266,
  "Ġalmost": 1267,
  "Ġalone": 1268,
  "Ġalong": 1269,
  "Ġaloud": 1270,
  "Ġalready": 1271,
  "Ġalright": 1272,
  "Ġalso": 1273,
  "Ġalthough": 1274,
  "Ġalways": 1275,
  "Ġam": 1276,
  "Ġamaz": 1277,
  "Ġamazed": 1278,
  "Ġamazement": 1279,
  "Ġamazing": 1280,
  "Ġambulance": 1281,
  "Ġamong": 1282,
  "Ġamount": 1283,
  "Ġamused": 1284,
  "Ġan": 1285,
  "Ġanchor": 1286,
  "Ġancient": 1287,
  "Ġand": 1288,
  "Ġang": 1289,
  "Ġangel": 1290,
  "Ġangels": 1291,
  "Ġanger": 1292,
  "Ġangrier": 1293,
  "Ġangrily": 1294,
  "Ġangry": 1295,
  "Ġanimal": 1296,
  "Ġanimals": 1297,
  "Ġank": 1298,
  "Ġann": 1299,
  "Ġannounced": 1300,
  "Ġannoy": 1301,
  "Ġannoyed": 1302,
  "Ġannoying": 1303,
  "Ġanother": 1304,
  "Ġansw": 1305,
  "Ġanswer": 1306,
  "Ġanswered": 1307,
  "Ġanswering": 1308,
  "Ġanswers": 1309,
  "Ġant": 1310,
  "Ġantic": 1311,
  "Ġanticip": 1312,
  "Ġanticipation": 1313,
  "Ġants": 1314,
  "Ġanx": 1315,
  "Ġanxious": 1316,
  "Ġany": 1317,
  "Ġanymore": 1318,
  "Ġanyone": 1319,
  "Ġanything": 1320,
  "Ġanytime": 1321,
  "Ġanyway": 1322,
  "Ġanywhere": 1323,
  "Ġap": 1324,
  "Ġapart": 1325,
  "Ġapolog": 1326,
  "Ġapologised": 1327,
  "Ġapologize": 1328,
  "Ġapologized": 1329,
  "Ġapology": 1330,
  "Ġapp": 1331,
  "Ġappear": 1332,
  "Ġappearance": 1333,
  "Ġappeared": 1334,
  "Ġappl": 1335,
  "Ġapplaud": 1336,
  "Ġapplauded": 1337,
  "Ġapplauding": 1338,
  "Ġapplause": 1339,
  "Ġapple": 1340,
  "Ġapples": 1341,
  "Ġappreci": 1342,
  "Ġappreciate": 1343,
  "Ġappreciated": 1344,
  "Ġappreciation": 1345,
  "Ġappro": 1346,
  "Ġapproach": 1347,
  "Ġapproached": 1348,
  "Ġapron": 1349,
  "Ġaprons": 1350,
  "Ġar": 1351,
  "Ġare": 1352,
  "Ġarea": 1353,
  "Ġaren": 1354,
  "Ġarg": 1355,
  "Ġargu": 1356,
  "Ġargue": 1357,
  "Ġargued": 1358,
  "Ġarguing": 1359,
  "Ġargum": 1360,
  "Ġargument": 1361,
  "Ġarm": 1362,
  "Ġarmchair": 1363,
  "Ġarms": 1364,
  "Ġaround": 1365,
  "Ġarr": 1366,
  "Ġarranged": 1367,
  "Ġarrest": 1368,
  "Ġarri": 1369,
  "Ġarrive": 1370,
  "Ġarrived": 1371,
  "Ġarrives": 1372,
  "Ġarrow": 1373,
  "Ġarrows": 1374,
  "Ġart": 1375,
  "Ġartist": 1376,
  "Ġartwork": 1377,
  "Ġas": 1378,
  "Ġash": 1379,
  "Ġashamed": 1380,
  "Ġashtray": 1381,
  "Ġaside": 1382,
  "Ġask": 1383,
  "Ġasked": 1384,
  "Ġasking": 1385,
  "Ġasks": 1386,
  "Ġasleep": 1387,
  "Ġass": 1388,
  "Ġast": 1389,
  "Ġaston": 1390,
  "Ġastonished": 1391,
  "Ġastron": 1392,
  "Ġastronaut": 1393,
  "Ġastronauts": 1394,
  "Ġat": 1395,
  "Ġate": 1396,
  "Ġatt": 1397,
  "Ġattach": 1398,
  "Ġattached": 1399,
  "Ġattaching": 1400,
  "Ġattack": 1401,
  "Ġattacked": 1402,
  "Ġattem": 1403,
  "Ġattempt": 1404,
  "Ġattempts": 1405,
  "Ġattention": 1406,
  "Ġattic": 1407,
  "Ġattitude": 1408,
  "Ġattract": 1409,
  "Ġattractive": 1410,
  "Ġaud": 1411,
  "Ġaudience": 1412,
  "Ġaunt": 1413,
  "Ġaut": 1414,
  "Ġautomobile": 1415,
  "Ġautomobiles": 1416,
  "Ġav": 1417,
  "Ġavailable": 1418,
  "Ġavo": 1419,
  "Ġavoc": 1420,
  "Ġavocado": 1421,
  "Ġavocados": 1422,
  "Ġavoid": 1423,
  "Ġaw": 1424,
  "Ġawake": 1425,
  "Ġaware": 1426,
  "Ġaway": 1427,
  "Ġawe": 1428,
  "Ġawesome": 1429,
  "Ġawful": 1430,
  "Ġawhile": 1431,
  "Ġawoke": 1432,
  "Ġax": 1433,
  "Ġaxe": 1434,
  "Ġb": 1435,
  "Ġba": 1436,
  "Ġbaa": 1437,
  "Ġbabies": 1438,
  "Ġbaby": 1439,
  "Ġback": 1440,
  "Ġbacked": 1441,
  "Ġbackpack": 1442,
  "Ġbackpacks": 1443,
  "Ġbacks": 1444,
  "Ġbackward": 1445,
  "Ġbackwards": 1446,
  "Ġbackyard": 1447,
  "Ġbad": 1448,
  "Ġbadge": 1449,
  "Ġbadger": 1450,
  "Ġbadly": 1451,
  "Ġbag": 1452,
  "Ġbags": 1453,
  "Ġbak": 1454,
  "Ġbake": 1455,
  "Ġbaked": 1456,
  "Ġbaker": 1457,
  "Ġbakery": 1458,
  "Ġbaking": 1459,
  "Ġbal": 1460,
  "Ġbalan": 1461,
  "Ġbalance": 1462,
  "Ġbalanced": 1463,
  "Ġbalancing": 1464,
  "Ġbald": 1465,
  "Ġball": 1466,
  "Ġballoon": 1467,
  "Ġballoons": 1468,
  "Ġballs": 1469,
  "Ġbamboo": 1470,
  "Ġban": 1471,
  "Ġbanan": 1472,
  "Ġbanana": 1473,
  "Ġbananas": 1474,
  "Ġband": 1475,
  "Ġbandage": 1476,
  "Ġbandages": 1477,
  "Ġbang": 1478,
  "Ġbanged": 1479,
  "Ġbanging": 1480,
  "Ġbank": 1481,
  "Ġbar": 1482,
  "Ġbarber": 1483,
  "Ġbare": 1484,
  "Ġbarely": 1485,
  "Ġbark": 1486,
  "Ġbarked": 1487,
  "Ġbarking": 1488,
  "Ġbarks": 1489,
  "Ġbarn": 1490,
  "Ġbarrel": 1491,
  "Ġbars": 1492,
  "Ġbas": 1493,
  "Ġbase": 1494,
  "Ġbaseball": 1495,
  "Ġbasement": 1496,
  "Ġbasket": 1497,
  "Ġbasketball": 1498,
  "Ġbaskets": 1499,
  "Ġbat": 1500,
  "Ġbath": 1501,
  "Ġbathe": 1502,
  "Ġbathed": 1503,
  "Ġbathing": 1504,
  "Ġbathrobe": 1505,
  "Ġbathroom": 1506,
  "Ġbaths": 1507,
  "Ġbathtub": 1508,
  "Ġbats": 1509,
  "Ġbatter": 1510,
  "Ġbatteries": 1511,
  "Ġbattery": 1512,
  "Ġbattle": 1513,
  "Ġbe": 1514,
  "Ġbeach": 1515,
  "Ġbead": 1516,
  "Ġbeads": 1517,
  "Ġbeak": 1518,
  "Ġbeaks": 1519,
  "Ġbeam": 1520,
  "Ġbeamed": 1521,
  "Ġbeaming": 1522,
  "Ġbean": 1523,
  "Ġbeans": 1524,
  "Ġbeanstalk": 1525,
  "Ġbear": 1526,
  "Ġbeard": 1527,
  "Ġbears": 1528,
  "Ġbeast": 1529,
  "Ġbeat": 1530,
  "Ġbeating": 1531,
  "Ġbeaut": 1532,
  "Ġbeautiful": 1533,
  "Ġbeautifully": 1534,
  "Ġbeauty": 1535,
  "Ġbeaver": 1536,
  "Ġbec": 1537,
  "Ġbecame": 1538,
  "Ġbecause": 1539,
  "Ġbecome": 1540,
  "Ġbecomes": 1541,
  "Ġbecoming": 1542,
  "Ġbed": 1543,
  "Ġbedroom": 1544,
  "Ġbeds": 1545,
  "Ġbedtime": 1546,
  "Ġbee": 1547,
  "Ġbeef": 1548,
  "Ġbeeh": 1549,
  "Ġbeehive": 1550,
  "Ġbeen": 1551,
  "Ġbeep": 1552,
  "Ġbeeped": 1553,
  "Ġbees": 1554,
  "Ġbeet": 1555,
  "Ġbeetle": 1556,
  "Ġbeetles": 1557,
  "Ġbefore": 1558,
  "Ġbeg": 1559,
  "Ġbegan": 1560,
  "Ġbegged": 1561,
  "Ġbegin": 1562,
  "Ġbeginning": 1563,
  "Ġbeh": 1564,
  "Ġbehave": 1565,
  "Ġbehaved": 1566,
  "Ġbehavi": 1567,
  "Ġbehaving": 1568,
  "Ġbehavior": 1569,
  "Ġbehaviour": 1570,
  "Ġbehind": 1571,
  "Ġbeing": 1572,
  "Ġbel": 1573,
  "Ġbelie": 1574,
  "Ġbelieve": 1575,
  "Ġbelieved": 1576,
  "Ġbelieving": 1577,
  "Ġbell": 1578,
  "Ġbellies": 1579,
  "Ġbells": 1580,
  "Ġbelly": 1581,
  "Ġbelong": 1582,
  "Ġbelonged": 1583,
  "Ġbelongings": 1584,
  "Ġbelongs": 1585,
  "Ġbeloved": 1586,
  "Ġbelow": 1587,
  "Ġbelt": 1588,
  "Ġbelts": 1589,
  "Ġben": 1590,
  "Ġbench": 1591,
  "Ġbenches": 1592,
  "Ġbend": 1593,
  "Ġbending": 1594,
  "Ġbends": 1595,
  "Ġbeneath": 1596,
  "Ġbent": 1597,
  "Ġberries": 1598,
  "Ġberry": 1599,
  "Ġbeside": 1600,
  "Ġbest": 1601,
  "Ġbet": 1602,
  "Ġbetter": 1603,
  "Ġbetween": 1604,
  "Ġbeyond": 1605,
  "Ġbicy": 1606,
  "Ġbicycle": 1607,
  "Ġbicycles": 1608,
  "Ġbig": 1609,
  "Ġbigger": 1610,
  "Ġbiggest": 1611,
  "Ġbike": 1612,
  "Ġbikes": 1613,
  "Ġbill": 1614,
  "Ġbillboard": 1615,
  "Ġbin": 1616,
  "Ġbinocular": 1617,
  "Ġbinoculars": 1618,
  "Ġbird": 1619,
  "Ġbirdc": 1620,
  "Ġbirdcage": 1621,
  "Ġbirdhouse": 1622,
  "Ġbirds": 1623,
  "Ġbirthday": 1624,
  "Ġbiscuit": 1625,
  "Ġbit": 1626,
  "Ġbite": 1627,
  "Ġbites": 1628,
  "Ġbiting": 1629,
  "Ġbits": 1630,
  "Ġbitten": 1631,
  "Ġbitter": 1632,
  "Ġbl": 1633,
  "Ġblack": 1634,
  "Ġblackboard": 1635,
  "Ġblame": 1636,
  "Ġblamed": 1637,
  "Ġblank": 1638,
  "Ġblanket": 1639,
  "Ġblankets": 1640,
  "Ġblast": 1641,
  "Ġble": 1642,
  "Ġbleed": 1643,
  "Ġbleeding": 1644,
  "Ġbless": 1645,
  "Ġblew": 1646,
  "Ġblin": 1647,
  "Ġblink": 1648,
  "Ġblinked": 1649,
  "Ġblinking": 1650,
  "Ġblock": 1651,
  "Ġblocked": 1652,
  "Ġblocking": 1653,
  "Ġblocks": 1654,
  "Ġblond": 1655,
  "Ġblonde": 1656,
  "Ġblood": 1657,
  "Ġbloom": 1658,
  "Ġbloomed": 1659,
  "Ġblooming": 1660,
  "Ġblooms": 1661,
  "Ġblouse": 1662,
  "Ġblow": 1663,
  "Ġblowing": 1664,
  "Ġblown": 1665,
  "Ġblows": 1666,
  "Ġblue": 1667,
  "Ġblueberries": 1668,
  "Ġblueberry": 1669,
  "Ġbluebird": 1670,
  "Ġblushed": 1671,
  "Ġbo": 1672,
  "Ġboard": 1673,
  "Ġboards": 1674,
  "Ġboat": 1675,
  "Ġboats": 1676,
  "Ġbodies": 1677,
  "Ġbody": 1678,
  "Ġboil": 1679,
  "Ġbold": 1680,
  "Ġbomb": 1681,
  "Ġbond": 1682,
  "Ġbone": 1683,
  "Ġbones": 1684,
  "Ġboo": 1685,
  "Ġbook": 1686,
  "Ġbookcase": 1687,
  "Ġbooks": 1688,
  "Ġbookshe": 1689,
  "Ġbookshelf": 1690,
  "Ġboom": 1691,
  "Ġboot": 1692,
  "Ġbooth": 1693,
  "Ġboots": 1694,
  "Ġbor": 1695,
  "Ġbored": 1696,
  "Ġboring": 1697,
  "Ġborn": 1698,
  "Ġborrow": 1699,
  "Ġborrowed": 1700,
  "Ġboss": 1701,
  "Ġbossy": 1702,
  "Ġboth": 1703,
  "Ġbother": 1704,
  "Ġbothered": 1705,
  "Ġbothering": 1706,
  "Ġbott": 1707,
  "Ġbottle": 1708,
  "Ġbottles": 1709,
  "Ġbottom": 1710,
  "Ġbought": 1711,
  "Ġboun": 1712,
  "Ġbounce": 1713,
  "Ġbounced": 1714,
  "Ġbounces": 1715,
  "Ġbouncing": 1716,
  "Ġbouncy": 1717,
  "Ġbound": 1718,
  "Ġbouquet": 1719,
  "Ġbow": 1720,
  "Ġbowed": 1721,
  "Ġbowing": 1722,
  "Ġbowl": 1723,
  "Ġbowls": 1724,
  "Ġbows": 1725,
  "Ġbox": 1726,
  "Ġboxes": 1727,
  "Ġboy": 1728,
  "Ġboys": 1729,
  "Ġbr": 1730,
  "Ġbra": 1731,
  "Ġbrace": 1732,
  "Ġbracelet": 1733,
  "Ġbracelets": 1734,
  "Ġbrain": 1735,
  "Ġbrains": 1736,
  "Ġbrakes": 1737,
  "Ġbran": 1738,
  "Ġbranch": 1739,
  "Ġbranches": 1740,
  "Ġbrand": 1741,
  "Ġbrave": 1742,
  "Ġbravely": 1743,
  "Ġbraver": 1744,
  "Ġbravery": 1745,
  "Ġbravest": 1746,
  "Ġbre": 1747,
  "Ġbread": 1748,
  "Ġbreak": 1749,
  "Ġbreakfast": 1750,
  "Ġbreaking": 1751,
  "Ġbreaks": 1752,
  "Ġbreat": 1753,
  "Ġbreath": 1754,
  "Ġbreathe": 1755,
  "Ġbreathed": 1756,
  "Ġbreathing": 1757,
  "Ġbreaths": 1758,
  "Ġbreeze": 1759,
  "Ġbri": 1760,
  "Ġbrick": 1761,
  "Ġbricks": 1762,
  "Ġbrid": 1763,
  "Ġbride": 1764,
  "Ġbridge": 1765,
  "Ġbridges": 1766,
  "Ġbright": 1767,
  "Ġbrighter": 1768,
  "Ġbrightest": 1769,
  "Ġbrightly": 1770,
  "Ġbrilliant": 1771,
  "Ġbring": 1772,
  "Ġbringing": 1773,
  "Ġbrings": 1774,
  "Ġbro": 1775,
  "Ġbroccoli": 1776,
  "Ġbroke": 1777,
  "Ġbroken": 1778,
  "Ġbroom": 1779,
  "Ġbrother": 1780,
  "Ġbrothers": 1781,
  "Ġbrought": 1782,
  "Ġbrown": 1783,
  "Ġbru": 1784,
  "Ġbruises": 1785,
  "Ġbrus": 1786,
  "Ġbrush": 1787,
  "Ġbrushed": 1788,
  "Ġbrushes": 1789,
  "Ġbrushing": 1790,
  "Ġbu": 1791,
  "Ġbubb": 1792,
  "Ġbubble": 1793,
  "Ġbubbles": 1794,
  "Ġbubbling": 1795,
  "Ġbubbly": 1796,
  "Ġbuck": 1797,
  "Ġbucket": 1798,
  "Ġbuckets": 1799,
  "Ġbuckle": 1800,
  "Ġbuckled": 1801,
  "Ġbuckles": 1802,
  "Ġbud": 1803,
  "Ġbuddy": 1804,
  "Ġbudge": 1805,
  "Ġbug": 1806,
  "Ġbugs": 1807,
  "Ġbuild": 1808,
  "Ġbuilder": 1809,
  "Ġbuilders": 1810,
  "Ġbuilding": 1811,
  "Ġbuildings": 1812,
  "Ġbuilt": 1813,
  "Ġbulb": 1814,
  "Ġbulbs": 1815,
  "Ġbull": 1816,
  "Ġbully": 1817,
  "Ġbump": 1818,
  "Ġbumped": 1819,
  "Ġbumping": 1820,
  "Ġbumps": 1821,
  "Ġbumpy": 1822,
  "Ġbunch": 1823,
  "Ġbund": 1824,
  "Ġbunnies": 1825,
  "Ġbunny": 1826,
  "Ġbur": 1827,
  "Ġburger": 1828,
  "Ġburgers": 1829,
  "Ġburied": 1830,
  "Ġburn": 1831,
  "Ġburned": 1832,
  "Ġburning": 1833,
  "Ġburns": 1834,
  "Ġburnt": 1835,
  "Ġburrow": 1836,
  "Ġburst": 1837,
  "Ġbury": 1838,
  "Ġburying": 1839,
  "Ġbus": 1840,
  "Ġbuses": 1841,
  "Ġbush": 1842,
  "Ġbushes": 1843,
  "Ġbushy": 1844,
  "Ġbusiness": 1845,
  "Ġbusy": 1846,
  "Ġbut": 1847,
  "Ġbutter": 1848,
  "Ġbutterf": 1849,
  "Ġbutterflies": 1850,
  "Ġbutterfly": 1851,
  "Ġbutton": 1852,
  "Ġbuttons": 1853,
  "Ġbuy": 1854,
  "Ġbuying": 1855,
  "Ġbuzz": 1856,
  "Ġbuzzed": 1857,
  "Ġbuzzing": 1858,
  "Ġby": 1859,
  "Ġbye": 1860,
  "Ġc": 1861,
  "Ġca": 1862,
  "Ġcab": 1863,
  "Ġcabin": 1864,
  "Ġcabinet": 1865,
  "Ġcable": 1866,
  "Ġcact": 1867,
  "Ġcactus": 1868,
  "Ġcafe": 1869,
  "Ġcage": 1870,
  "Ġcages": 1871,
  "Ġcake": 1872,
  "Ġcakes": 1873,
  "Ġcalend": 1874,
  "Ġcalendar": 1875,
  "Ġcall": 1876,
  "Ġcalled": 1877,
  "Ġcalling": 1878,
  "Ġcalls": 1879,
  "Ġcalm": 1880,
  "Ġcalmed": 1881,
  "Ġcalmer": 1882,
  "Ġcalmly": 1883,
  "Ġcam": 1884,
  "Ġcame": 1885,
  "Ġcamel": 1886,
  "Ġcamera": 1887,
  "Ġcamp": 1888,
  "Ġcampfire": 1889,
  "Ġcamping": 1890,
  "Ġcan": 1891,
  "Ġcand": 1892,
  "Ġcandies": 1893,
  "Ġcandle": 1894,
  "Ġcandles": 1895,
  "Ġcandy": 1896,
  "Ġcane": 1897,
  "Ġcannot": 1898,
  "Ġcans": 1899,
  "Ġcap": 1900,
  "Ġcape": 1901,
  "Ġcapes": 1902,
  "Ġcaps": 1903,
  "Ġcapt": 1904,
  "Ġcaptain": 1905,
  "Ġcar": 1906,
  "Ġcard": 1907,
  "Ġcardboard": 1908,
  "Ġcards": 1909,
  "Ġcare": 1910,
  "Ġcared": 1911,
  "Ġcareful": 1912,
  "Ġcarefully": 1913,
  "Ġcareless": 1914,
  "Ġcares": 1915,
  "Ġcaring": 1916,
  "Ġcarp": 1917,
  "Ġcarpet": 1918,
  "Ġcarried": 1919,
  "Ġcarries": 1920,
  "Ġcarrot": 1921,
  "Ġcarrots": 1922,
  "Ġcarry": 1923,
  "Ġcarrying": 1924,
  "Ġcars": 1925,
  "Ġcart": 1926,
  "Ġcartoon": 1927,
  "Ġcartoons": 1928,
  "Ġcarts": 1929,
  "Ġcase": 1930,
  "Ġcash": 1931,
  "Ġcashier": 1932,
  "Ġcast": 1933,
  "Ġcastle": 1934,
  "Ġcastles": 1935,
  "Ġcat": 1936,
  "Ġcatch": 1937,
  "Ġcatches": 1938,
  "Ġcatching": 1939,
  "Ġcaterpill": 1940,
  "Ġcaterpillar": 1941,
  "Ġcaterpillars": 1942,
  "Ġcats": 1943,
  "Ġcaught": 1944,
  "Ġcaulif": 1945,
  "Ġcauliflower": 1946,
  "Ġcause": 1947,
  "Ġcaused": 1948,
  "Ġcausing": 1949,
  "Ġcaut": 1950,
  "Ġcaution": 1951,
  "Ġcautious": 1952,
  "Ġcautiously": 1953,
  "Ġcave": 1954,
  "Ġcaw": 1955,
  "Ġce": 1956,
  "Ġceiling": 1957,
  "Ġcelebr": 1958,
  "Ġcelebrate": 1959,
  "Ġcelebrated": 1960,
  "Ġcelebrating": 1961,
  "Ġcelebration": 1962,
  "Ġcelery": 1963,
  "Ġcell": 1964,
  "Ġcells": 1965,
  "Ġcent": 1966,
  "Ġcenter": 1967,
  "Ġcentre": 1968,
  "Ġcere": 1969,
  "Ġcereal": 1970,
  "Ġcertain": 1971,
  "Ġcertainly": 1972,
  "Ġch": 1973,
  "Ġchain": 1974,
  "Ġchair": 1975,
  "Ġchairs": 1976,
  "Ġchalk": 1977,
  "Ġchallen": 1978,
  "Ġchallenge": 1979,
  "Ġchallenges": 1980,
  "Ġchamber": 1981,
  "Ġchance": 1982,
  "Ġchange": 1983,
  "Ġchanged": 1984,
  "Ġchanges": 1985,
  "Ġchanging": 1986,
  "Ġchar": 1987,
  "Ġcharac": 1988,
  "Ġcharacters": 1989,
  "Ġcharge": 1990,
  "Ġcharm": 1991,
  "Ġcharming": 1992,
  "Ġchase": 1993,
  "Ġchased": 1994,
  "Ġchases": 1995,
  "Ġchasing": 1996,
  "Ġchat": 1997,
  "Ġchatted": 1998,
  "Ġchatting": 1999,
  "Ġche": 2000,
  "Ġcheap": 2001,
  "Ġcheaper": 2002,
  "Ġcheat": 2003,
  "Ġcheated": 2004,
  "Ġcheating": 2005,
  "Ġcheck": 2006,
  "Ġchecked": 2007,
  "Ġchecking": 2008,
  "Ġcheckout": 2009,
  "Ġchecks": 2010,
  "Ġchee": 2011,
  "Ġcheek": 2012,
  "Ġcheeks": 2013,
  "Ġcheer": 2014,
  "Ġcheered": 2015,
  "Ġcheerful": 2016,
  "Ġcheerfully": 2017,
  "Ġcheering": 2018,
  "Ġcheers": 2019,
  "Ġcheese": 2020,
  "Ġcheetah": 2021,
  "Ġchef": 2022,
  "Ġchefs": 2023,
  "Ġcher": 2024,
  "Ġcherries": 2025,
  "Ġcherry": 2026,
  "Ġchess": 2027,
  "Ġchest": 2028,
  "Ġchew": 2029,
  "Ġchewed": 2030,
  "Ġchewing": 2031,
  "Ġchews": 2032,
  "Ġchick": 2033,
  "Ġchicken": 2034,
  "Ġchickens": 2035,
  "Ġchicks": 2036,
  "Ġchild": 2037,
  "Ġchildren": 2038,
  "Ġchill": 2039,
  "Ġchilly": 2040,
  "Ġchimney": 2041,
  "Ġchin": 2042,
  "Ġchip": 2043,
  "Ġchipmunk": 2044,
  "Ġchips": 2045,
  "Ġchirp": 2046,
  "Ġchirped": 2047,
  "Ġchirping": 2048,
  "Ġcho": 2049,
  "Ġchocol": 2050,
  "Ġchocolate": 2051,
  "Ġchocolates": 2052,
  "Ġchoice": 2053,
  "Ġchoices": 2054,
  "Ġchoo": 2055,
  "Ġchoose": 2056,
  "Ġchooses": 2057,
  "Ġchoosing": 2058,
  "Ġchop": 2059,
  "Ġchopped": 2060,
  "Ġchopping": 2061,
  "Ġchores": 2062,
  "Ġchose": 2063,
  "Ġchosen": 2064,
  "Ġchubby": 2065,
  "Ġchuck": 2066,
  "Ġchuckled": 2067,
  "Ġchurch": 2068,
  "Ġcir": 2069,
  "Ġcirc": 2070,
  "Ġcircle": 2071,
  "Ġcircles": 2072,
  "Ġcircus": 2073,
  "Ġcity": 2074,
  "Ġcl": 2075,
  "Ġcla": 2076,
  "Ġclap": 2077,
  "Ġclapped": 2078,
  "Ġclapping": 2079,
  "Ġclaps": 2080,
  "Ġclass": 2081,
  "Ġclassmates": 2082,
  "Ġclassroom": 2083,
  "Ġclaw": 2084,
  "Ġclaws": 2085,
  "Ġclay": 2086,
  "Ġcle": 2087,
  "Ġclean": 2088,
  "Ġcleaned": 2089,
  "Ġcleaner": 2090,
  "Ġcleaning": 2091,
  "Ġcleans": 2092,
  "Ġclear": 2093,
  "Ġcleared": 2094,
  "Ġclearing": 2095,
  "Ġclearly": 2096,
  "Ġclerk": 2097,
  "Ġclever": 2098,
  "Ġclick": 2099,
  "Ġclicked": 2100,
  "Ġcliff": 2101,
  "Ġclimb": 2102,
  "Ġclimbed": 2103,
  "Ġclimbing": 2104,
  "Ġclimbs": 2105,
  "Ġclip": 2106,
  "Ġclips": 2107,
  "Ġclo": 2108,
  "Ġclock": 2109,
  "Ġclos": 2110,
  "Ġclose": 2111,
  "Ġclosed": 2112,
  "Ġclosely": 2113,
  "Ġcloser": 2114,
  "Ġcloses": 2115,
  "Ġcloset": 2116,
  "Ġclosing": 2117,
  "Ġclot": 2118,
  "Ġcloth": 2119,
  "Ġclothes": 2120,
  "Ġcloths": 2121,
  "Ġcloud": 2122,
  "Ġclouds": 2123,
  "Ġcloudy": 2124,
  "Ġclown": 2125,
  "Ġclowns": 2126,
  "Ġclub": 2127,
  "Ġcluck": 2128,
  "Ġclue": 2129,
  "Ġclues": 2130,
  "Ġclum": 2131,
  "Ġclumsy": 2132,
  "Ġclut": 2133,
  "Ġco": 2134,
  "Ġcoach": 2135,
  "Ġcoal": 2136,
  "Ġcoat": 2137,
  "Ġcoats": 2138,
  "Ġcob": 2139,
  "Ġcobweb": 2140,
  "Ġcobwebs": 2141,
  "Ġcocoa": 2142,
  "Ġcocoon": 2143,
  "Ġcoffee": 2144,
  "Ġcoin": 2145,
  "Ġcoins": 2146,
  "Ġcol": 2147,
  "Ġcold": 2148,
  "Ġcolder": 2149,
  "Ġcoll": 2150,
  "Ġcollap": 2151,
  "Ġcollapsed": 2152,
  "Ġcollar": 2153,
  "Ġcollect": 2154,
  "Ġcollected": 2155,
  "Ġcollecting": 2156,
  "Ġcollection": 2157,
  "Ġcolor": 2158,
  "Ġcolored": 2159,
  "Ġcolorful": 2160,
  "Ġcoloring": 2161,
  "Ġcolors": 2162,
  "Ġcolour": 2163,
  "Ġcoloured": 2164,
  "Ġcolourful": 2165,
  "Ġcolours": 2166,
  "Ġcom": 2167,
  "Ġcomb": 2168,
  "Ġcombed": 2169,
  "Ġcome": 2170,
  "Ġcomes": 2171,
  "Ġcomet": 2172,
  "Ġcomets": 2173,
  "Ġcomf": 2174,
  "Ġcomfort": 2175,
  "Ġcomfortable": 2176,
  "Ġcomforted": 2177,
  "Ġcomforting": 2178,
  "Ġcomfy": 2179,
  "Ġcoming": 2180,
  "Ġcomm": 2181,
  "Ġcommon": 2182,
  "Ġcommun": 2183,
  "Ġcomp": 2184,
  "Ġcompan": 2185,
  "Ġcompanion": 2186,
  "Ġcompany": 2187,
  "Ġcompass": 2188,
  "Ġcompassion": 2189,
  "Ġcompassionate": 2190,
  "Ġcompet": 2191,
  "Ġcompete": 2192,
  "Ġcompeting": 2193,
  "Ġcompetit": 2194,
  "Ġcompetition": 2195,
  "Ġcompetitive": 2196,
  "Ġcompl": 2197,
  "Ġcomplain": 2198,
  "Ġcomplained": 2199,
  "Ġcomplaining": 2200,
  "Ġcomple": 2201,
  "Ġcomplet": 2202,
  "Ġcomplete": 2203,
  "Ġcompleted": 2204,
  "Ġcompletely": 2205,
  "Ġcomput": 2206,
  "Ġcomputer": 2207,
  "Ġcomputers": 2208,
  "Ġcon": 2209,
  "Ġconc": 2210,
  "Ġconcentr": 2211,
  "Ġconcer": 2212,
  "Ġconcerned": 2213,
  "Ġcond": 2214,
  "Ġcone": 2215,
  "Ġcones": 2216,
  "Ġconf": 2217,
  "Ġconfidence": 2218,
  "Ġconfident": 2219,
  "Ġconfl": 2220,
  "Ġconflict": 2221,
  "Ġconfused": 2222,
  "Ġcongratul": 2223,
  "Ġcongratulated": 2224,
  "Ġconn": 2225,
  "Ġconnect": 2226,
  "Ġconnected": 2227,
  "Ġconqu": 2228,
  "Ġconquered": 2229,
  "Ġcons": 2230,
  "Ġconsequ": 2231,
  "Ġconsequences": 2232,
  "Ġconsider": 2233,
  "Ġcont": 2234,
  "Ġcontain": 2235,
  "Ġcontainer": 2236,
  "Ġcontent": 2237,
  "Ġcontest": 2238,
  "Ġcontin": 2239,
  "Ġcontinue": 2240,
  "Ġcontinued": 2241,
  "Ġcontro": 2242,
  "Ġcontrol": 2243,
  "Ġconvers": 2244,
  "Ġconversation": 2245,
  "Ġconvin": 2246,
  "Ġconvinced": 2247,
  "Ġcoo": 2248,
  "Ġcooed": 2249,
  "Ġcook": 2250,
  "Ġcooked": 2251,
  "Ġcookie": 2252,
  "Ġcookies": 2253,
  "Ġcooking": 2254,
  "Ġcooks": 2255,
  "Ġcool": 2256,
  "Ġcooler": 2257,
  "Ġcoolest": 2258,
  "Ġcoop": 2259,
  "Ġcooper": 2260,
  "Ġcooperate": 2261,
  "Ġcop": 2262,
  "Ġcopied": 2263,
  "Ġcopper": 2264,
  "Ġcops": 2265,
  "Ġcopy": 2266,
  "Ġcor": 2267,
  "Ġcoral": 2268,
  "Ġcord": 2269,
  "Ġcorn": 2270,
  "Ġcorner": 2271,
  "Ġcorners": 2272,
  "Ġcorrect": 2273,
  "Ġcorrectly": 2274,
  "Ġcost": 2275,
  "Ġcosts": 2276,
  "Ġcostume": 2277,
  "Ġcostumes": 2278,
  "Ġcosy": 2279,
  "Ġcott": 2280,
  "Ġcottage": 2281,
  "Ġcotton": 2282,
  "Ġcou": 2283,
  "Ġcouch": 2284,
  "Ġcoug": 2285,
  "Ġcough": 2286,
  "Ġcoughed": 2287,
  "Ġcould": 2288,
  "Ġcouldn": 2289,
  "Ġcount": 2290,
  "Ġcounted": 2291,
  "Ġcounter": 2292,
  "Ġcounting": 2293,
  "Ġcountries": 2294,
  "Ġcountry": 2295,
  "Ġcountryside": 2296,
  "Ġcounts": 2297,
  "Ġcoup": 2298,
  "Ġcouple": 2299,
  "Ġcour": 2300,
  "Ġcourage": 2301,
  "Ġcourageous": 2302,
  "Ġcourse": 2303,
  "Ġcourt": 2304,
  "Ġcous": 2305,
  "Ġcousin": 2306,
  "Ġcousins": 2307,
  "Ġcover": 2308,
  "Ġcovered": 2309,
  "Ġcovering": 2310,
  "Ġcovers": 2311,
  "Ġcow": 2312,
  "Ġcowb": 2313,
  "Ġcowboy": 2314,
  "Ġcowboys": 2315,
  "Ġcows": 2316,
  "Ġcozy": 2317,
  "Ġcr": 2318,
  "Ġcra": 2319,
  "Ġcrab": 2320,
  "Ġcrabs": 2321,
  "Ġcrack": 2322,
  "Ġcracked": 2323,
  "Ġcracker": 2324,
  "Ġcrackers": 2325,
  "Ġcracks": 2326,
  "Ġcraft": 2327,
  "Ġcrane": 2328,
  "Ġcras": 2329,
  "Ġcrash": 2330,
  "Ġcrashed": 2331,
  "Ġcrashing": 2332,
  "Ġcraw": 2333,
  "Ġcrawl": 2334,
  "Ġcrawled": 2335,
  "Ġcrawling": 2336,
  "Ġcrawls": 2337,
  "Ġcray": 2338,
  "Ġcrayon": 2339,
  "Ġcrayons": 2340,
  "Ġcrazy": 2341,
  "Ġcre": 2342,
  "Ġcreak": 2343,
  "Ġcream": 2344,
  "Ġcreams": 2345,
  "Ġcreamy": 2346,
  "Ġcreat": 2347,
  "Ġcreate": 2348,
  "Ġcreated": 2349,
  "Ġcreating": 2350,
  "Ġcreation": 2351,
  "Ġcreations": 2352,
  "Ġcreative": 2353,
  "Ġcreativity": 2354,
  "Ġcreature": 2355,
  "Ġcreatures": 2356,
  "Ġcreek": 2357,
  "Ġcreep": 2358,
  "Ġcrept": 2359,
  "Ġcrew": 2360,
  "Ġcri": 2361,
  "Ġcrib": 2362,
  "Ġcricket": 2363,
  "Ġcrickets": 2364,
  "Ġcried": 2365,
  "Ġcries": 2366,
  "Ġcrisp": 2367,
  "Ġcro": 2368,
  "Ġcroak": 2369,
  "Ġcroaked": 2370,
  "Ġcrocodile": 2371,
  "Ġcrocodiles": 2372,
  "Ġcrops": 2373,
  "Ġcross": 2374,
  "Ġcrossed": 2375,
  "Ġcrossing": 2376,
  "Ġcrouched": 2377,
  "Ġcrow": 2378,
  "Ġcrowd": 2379,
  "Ġcrowded": 2380,
  "Ġcrown": 2381,
  "Ġcrowns": 2382,
  "Ġcrumb": 2383,
  "Ġcrumbs": 2384,
  "Ġcrunch": 2385,
  "Ġcrunchy": 2386,
  "Ġcrushed": 2387,
  "Ġcry": 2388,
  "Ġcrying": 2389,
  "Ġcryst": 2390,
  "Ġcrystal": 2391,
  "Ġcrystals": 2392,
  "Ġcu": 2393,
  "Ġcub": 2394,
  "Ġcube": 2395,
  "Ġcubes": 2396,
  "Ġcubs": 2397,
  "Ġcuc": 2398,
  "Ġcudd": 2399,
  "Ġcuddle": 2400,
  "Ġcuddled": 2401,
  "Ġcuddles": 2402,
  "Ġcuddly": 2403,
  "Ġcup": 2404,
  "Ġcupboard": 2405,
  "Ġcupcake": 2406,
  "Ġcupcakes": 2407,
  "Ġcups": 2408,
  "Ġcur": 2409,
  "Ġcuri": 2410,
  "Ġcuriosity": 2411,
  "Ġcurious": 2412,
  "Ġcuriously": 2413,
  "Ġcurl": 2414,
  "Ġcurled": 2415,
  "Ġcurly": 2416,
  "Ġcurt": 2417,
  "Ġcurtain": 2418,
  "Ġcurtains": 2419,
  "Ġcush": 2420,
  "Ġcushion": 2421,
  "Ġcushions": 2422,
  "Ġcust": 2423,
  "Ġcustom": 2424,
  "Ġcustomer": 2425,
  "Ġcustomers": 2426,
  "Ġcut": 2427,
  "Ġcute": 2428,
  "Ġcuts": 2429,
  "Ġcutter": 2430,
  "Ġcutting": 2431,
  "Ġd": 2432,
  "Ġdad": 2433,
  "Ġdaddy": 2434,
  "Ġdads": 2435,
  "Ġdaisies": 2436,
  "Ġdaisy": 2437,
  "Ġdam": 2438,
  "Ġdamage": 2439,
  "Ġdamaged": 2440,
  "Ġdan": 2441,
  "Ġdanc": 2442,
  "Ġdance": 2443,
  "Ġdanced": 2444,
  "Ġdancer": 2445,
  "Ġdancers": 2446,
  "Ġdances": 2447,
  "Ġdancing": 2448,
  "Ġdanger": 2449,
  "Ġdangerous": 2450,
  "Ġdangers": 2451,
  "Ġdar": 2452,
  "Ġdare": 2453,
  "Ġdared": 2454,
  "Ġdaring": 2455,
  "Ġdark": 2456,
  "Ġdarker": 2457,
  "Ġdarkness": 2458,
  "Ġdarling": 2459,
  "Ġdarlings": 2460,
  "Ġdate": 2461,
  "Ġdaughter": 2462,
  "Ġday": 2463,
  "Ġdays": 2464,
  "Ġde": 2465,
  "Ġdead": 2466,
  "Ġdeaf": 2467,
  "Ġdeal": 2468,
  "Ġdear": 2469,
  "Ġdears": 2470,
  "Ġdec": 2471,
  "Ġdecid": 2472,
  "Ġdecide": 2473,
  "Ġdecided": 2474,
  "Ġdecides": 2475,
  "Ġdecision": 2476,
  "Ġdecisions": 2477,
  "Ġdecl": 2478,
  "Ġdeclared": 2479,
  "Ġdecor": 2480,
  "Ġdecorate": 2481,
  "Ġdecorated": 2482,
  "Ġdecorating": 2483,
  "Ġdecoration": 2484,
  "Ġdecorations": 2485,
  "Ġdedic": 2486,
  "Ġdeed": 2487,
  "Ġdeep": 2488,
  "Ġdeeper": 2489,
  "Ġdeeply": 2490,
  "Ġdeer": 2491,
  "Ġdef": 2492,
  "Ġdefe": 2493,
  "Ġdefeated": 2494,
  "Ġdefin": 2495,
  "Ġdefinitely": 2496,
  "Ġdel": 2497,
  "Ġdelay": 2498,
  "Ġdelayed": 2499,
  "Ġdelic": 2500,
  "Ġdelicate": 2501,
  "Ġdelicious": 2502,
  "Ġdelight": 2503,
  "Ġdelighted": 2504,
  "Ġdeliver": 2505,
  "Ġdelivered": 2506,
  "Ġdelivering": 2507,
  "Ġdelivery": 2508,
  "Ġdem": 2509,
  "Ġdemand": 2510,
  "Ġdemanded": 2511,
  "Ġdemanding": 2512,
  "Ġden": 2513,
  "Ġdent": 2514,
  "Ġdentist": 2515,
  "Ġdep": 2516,
  "Ġdepend": 2517,
  "Ġdependable": 2518,
  "Ġdes": 2519,
  "Ġdeser": 2520,
  "Ġdesert": 2521,
  "Ġdeserve": 2522,
  "Ġdeserved": 2523,
  "Ġdeserves": 2524,
  "Ġdesign": 2525,
  "Ġdesigned": 2526,
  "Ġdesigning": 2527,
  "Ġdesigns": 2528,
  "Ġdesk": 2529,
  "Ġdesks": 2530,
  "Ġdesper": 2531,
  "Ġdesperate": 2532,
  "Ġdesperately": 2533,
  "Ġdespite": 2534,
  "Ġdess": 2535,
  "Ġdessert": 2536,
  "Ġdesserts": 2537,
  "Ġdest": 2538,
  "Ġdestination": 2539,
  "Ġdestro": 2540,
  "Ġdestroy": 2541,
  "Ġdestroyed": 2542,
  "Ġdestroying": 2543,
  "Ġdet": 2544,
  "Ġdetails": 2545,
  "Ġdetect": 2546,
  "Ġdeter": 2547,
  "Ġdeterm": 2548,
  "Ġdetermination": 2549,
  "Ġdetermined": 2550,
  "Ġdev": 2551,
  "Ġdi": 2552,
  "Ġdial": 2553,
  "Ġdiamond": 2554,
  "Ġdiamonds": 2555,
  "Ġdiary": 2556,
  "Ġdictionary": 2557,
  "Ġdid": 2558,
  "Ġdidn": 2559,
  "Ġdie": 2560,
  "Ġdied": 2561,
  "Ġdif": 2562,
  "Ġdiffere": 2563,
  "Ġdifference": 2564,
  "Ġdifferences": 2565,
  "Ġdifferent": 2566,
  "Ġdifferently": 2567,
  "Ġdiffic": 2568,
  "Ġdifficult": 2569,
  "Ġdig": 2570,
  "Ġdigg": 2571,
  "Ġdigging": 2572,
  "Ġdigs": 2573,
  "Ġdin": 2574,
  "Ġding": 2575,
  "Ġdinner": 2576,
  "Ġdinosaur": 2577,
  "Ġdinosaurs": 2578,
  "Ġdip": 2579,
  "Ġdipped": 2580,
  "Ġdir": 2581,
  "Ġdire": 2582,
  "Ġdirection": 2583,
  "Ġdirections": 2584,
  "Ġdirt": 2585,
  "Ġdirtier": 2586,
  "Ġdirty": 2587,
  "Ġdis": 2588,
  "Ġdisag": 2589,
  "Ġdisagre": 2590,
  "Ġdisagree": 2591,
  "Ġdisagreed": 2592,
  "Ġdisagreeing": 2593,
  "Ġdisagreement": 2594,
  "Ġdisapp": 2595,
  "Ġdisappear": 2596,
  "Ġdisappeared": 2597,
  "Ġdisappearing": 2598,
  "Ġdisappoin": 2599,
  "Ġdisappoint": 2600,
  "Ġdisappointed": 2601,
  "Ġdisappointment": 2602,
  "Ġdisaster": 2603,
  "Ġdisc": 2604,
  "Ġdisco": 2605,
  "Ġdiscouraged": 2606,
  "Ġdiscover": 2607,
  "Ġdiscovered": 2608,
  "Ġdiscoveries": 2609,
  "Ġdiscovering": 2610,
  "Ġdiscovery": 2611,
  "Ġdiscuss": 2612,
  "Ġdiscussed": 2613,
  "Ġdiscussing": 2614,
  "Ġdisg": 2615,
  "Ġdisgust": 2616,
  "Ġdisgusting": 2617,
  "Ġdish": 2618,
  "Ġdishes": 2619,
  "Ġdishwasher": 2620,
  "Ġdisob": 2621,
  "Ġdisobey": 2622,
  "Ġdisobeyed": 2623,
  "Ġdisplay": 2624,
  "Ġdisplayed": 2625,
  "Ġdist": 2626,
  "Ġdistance": 2627,
  "Ġdistant": 2628,
  "Ġdisturb": 2629,
  "Ġdisturbed": 2630,
  "Ġdisturbing": 2631,
  "Ġdive": 2632,
  "Ġdived": 2633,
  "Ġdiving": 2634,
  "Ġdizzy": 2635,
  "Ġdo": 2636,
  "Ġdock": 2637,
  "Ġdoctor": 2638,
  "Ġdoctors": 2639,
  "Ġdod": 2640,
  "Ġdodged": 2641,
  "Ġdoes": 2642,
  "Ġdoesn": 2643,
  "Ġdog": 2644,
  "Ġdoggy": 2645,
  "Ġdogs": 2646,
  "Ġdoing": 2647,
  "Ġdoll": 2648,
  "Ġdollar": 2649,
  "Ġdollars": 2650,
  "Ġdollhouse": 2651,
  "Ġdolls": 2652,
  "Ġdolph": 2653,
  "Ġdolphin": 2654,
  "Ġdolphins": 2655,
  "Ġdon": 2656,
  "Ġdone": 2657,
  "Ġdonkey": 2658,
  "Ġdoor": 2659,
  "Ġdoorbell": 2660,
  "Ġdoors": 2661,
  "Ġdoorstep": 2662,
  "Ġdoorway": 2663,
  "Ġdot": 2664,
  "Ġdots": 2665,
  "Ġdou": 2666,
  "Ġdough": 2667,
  "Ġdove": 2668,
  "Ġdoves": 2669,
  "Ġdown": 2670,
  "Ġdownstairs": 2671,
  "Ġdr": 2672,
  "Ġdra": 2673,
  "Ġdrag": 2674,
  "Ġdragged": 2675,
  "Ġdragon": 2676,
  "Ġdragonfly": 2677,
  "Ġdragons": 2678,
  "Ġdrain": 2679,
  "Ġdrank": 2680,
  "Ġdraw": 2681,
  "Ġdrawer": 2682,
  "Ġdrawers": 2683,
  "Ġdrawing": 2684,
  "Ġdrawings": 2685,
  "Ġdrawn": 2686,
  "Ġdraws": 2687,
  "Ġdream": 2688,
  "Ġdreamed": 2689,
  "Ġdreaming": 2690,
  "Ġdreams": 2691,
  "Ġdreamt": 2692,
  "Ġdress": 2693,
  "Ġdressed": 2694,
  "Ġdresser": 2695,
  "Ġdresses": 2696,
  "Ġdressing": 2697,
  "Ġdrew": 2698,
  "Ġdri": 2699,
  "Ġdried": 2700,
  "Ġdrift": 2701,
  "Ġdrifted": 2702,
  "Ġdrink": 2703,
  "Ġdrinking": 2704,
  "Ġdrinks": 2705,
  "Ġdrip": 2706,
  "Ġdripped": 2707,
  "Ġdripping": 2708,
  "Ġdrive": 2709,
  "Ġdriver": 2710,
  "Ġdrivers": 2711,
  "Ġdrives": 2712,
  "Ġdriveway": 2713,
  "Ġdriving": 2714,
  "Ġdro": 2715,
  "Ġdrop": 2716,
  "Ġdropped": 2717,
  "Ġdropping": 2718,
  "Ġdrops": 2719,
  "Ġdrove": 2720,
  "Ġdrown": 2721,
  "Ġdrowned": 2722,
  "Ġdrum": 2723,
  "Ġdrums": 2724,
  "Ġdry": 2725,
  "Ġdrying": 2726,
  "Ġduck": 2727,
  "Ġduckling": 2728,
  "Ġducks": 2729,
  "Ġdug": 2730,
  "Ġdull": 2731,
  "Ġdumb": 2732,
  "Ġdump": 2733,
  "Ġduring": 2734,
  "Ġdust": 2735,
  "Ġdusty": 2736,
  "Ġe": 2737,
  "Ġeach": 2738,
  "Ġeag": 2739,
  "Ġeager": 2740,
  "Ġeagerly": 2741,
  "Ġeagle": 2742,
  "Ġear": 2743,
  "Ġearlier": 2744,
  "Ġearly": 2745,
  "Ġearn": 2746,
  "Ġearned": 2747,
  "Ġears": 2748,
  "Ġearth": 2749,
  "Ġearthquake": 2750,
  "Ġeas": 2751,
  "Ġease": 2752,
  "Ġeasier": 2753,
  "Ġeasily": 2754,
  "Ġeast": 2755,
  "Ġeasy": 2756,
  "Ġeat": 2757,
  "Ġeaten": 2758,
  "Ġeating": 2759,
  "Ġeats": 2760,
  "Ġecho": 2761,
  "Ġechoed": 2762,
  "Ġed": 2763,
  "Ġedge": 2764,
  "Ġedges": 2765,
  "Ġeff": 2766,
  "Ġeffort": 2767,
  "Ġefforts": 2768,
  "Ġegg": 2769,
  "Ġeggs": 2770,
  "Ġeight": 2771,
  "Ġeither": 2772,
  "Ġel": 2773,
  "Ġelbow": 2774,
  "Ġeld": 2775,
  "Ġelderly": 2776,
  "Ġele": 2777,
  "Ġelectric": 2778,
  "Ġelectricity": 2779,
  "Ġelephant": 2780,
  "Ġelephants": 2781,
  "Ġelevator": 2782,
  "Ġelf": 2783,
  "Ġelse": 2784,
  "Ġem": 2785,
  "Ġemb": 2786,
  "Ġembarrass": 2787,
  "Ġembarrassed": 2788,
  "Ġembra": 2789,
  "Ġemer": 2790,
  "Ġemerged": 2791,
  "Ġemergen": 2792,
  "Ġemergency": 2793,
  "Ġemp": 2794,
  "Ġempty": 2795,
  "Ġen": 2796,
  "Ġenc": 2797,
  "Ġencou": 2798,
  "Ġencount": 2799,
  "Ġencountered": 2800,
  "Ġencourag": 2801,
  "Ġencourage": 2802,
  "Ġencouraged": 2803,
  "Ġencouragement": 2804,
  "Ġencouraging": 2805,
  "Ġend": 2806,
  "Ġended": 2807,
  "Ġending": 2808,
  "Ġendings": 2809,
  "Ġends": 2810,
  "Ġenemies": 2811,
  "Ġenemy": 2812,
  "Ġener": 2813,
  "Ġenergetic": 2814,
  "Ġenergy": 2815,
  "Ġeng": 2816,
  "Ġengine": 2817,
  "Ġengines": 2818,
  "Ġenjoy": 2819,
  "Ġenjoyable": 2820,
  "Ġenjoyed": 2821,
  "Ġenjoying": 2822,
  "Ġenormous": 2823,
  "Ġenough": 2824,
  "Ġent": 2825,
  "Ġenter": 2826,
  "Ġentered": 2827,
  "Ġenth": 2828,
  "Ġenthusia": 2829,
  "Ġenthusiasm": 2830,
  "Ġenthusiastic": 2831,
  "Ġentire": 2832,
  "Ġentrance": 2833,
  "Ġenv": 2834,
  "Ġenvel": 2835,
  "Ġenvelope": 2836,
  "Ġenvelopes": 2837,
  "Ġenvious": 2838,
  "Ġenviron": 2839,
  "Ġenvironment": 2840,
  "Ġequ": 2841,
  "Ġequipment": 2842,
  "Ġer": 2843,
  "Ġerase": 2844,
  "Ġeraser": 2845,
  "Ġerasers": 2846,
  "Ġesc": 2847,
  "Ġescap": 2848,
  "Ġescape": 2849,
  "Ġescaped": 2850,
  "Ġespecially": 2851,
  "Ġev": 2852,
  "Ġeven": 2853,
  "Ġevening": 2854,
  "Ġevent": 2855,
  "Ġeventually": 2856,
  "Ġever": 2857,
  "Ġevery": 2858,
  "Ġeverybody": 2859,
  "Ġeveryday": 2860,
  "Ġeveryone": 2861,
  "Ġeverything": 2862,
  "Ġeverywhere": 2863,
  "Ġevil": 2864,
  "Ġex": 2865,
  "Ġexact": 2866,
  "Ġexactly": 2867,
  "Ġexam": 2868,
  "Ġexamine": 2869,
  "Ġexamined": 2870,
  "Ġexamining": 2871,
  "Ġexamp": 2872,
  "Ġexample": 2873,
  "Ġexams": 2874,
  "Ġexc": 2875,
  "Ġexcept": 2876,
  "Ġexch": 2877,
  "Ġexchange": 2878,
  "Ġexcite": 2879,
  "Ġexcited": 2880,
  "Ġexcitedly": 2881,
  "Ġexcitement": 2882,
  "Ġexciting": 2883,
  "Ġexclaimed": 2884,
  "Ġexerc": 2885,
  "Ġexercise": 2886,
  "Ġexercises": 2887,
  "Ġexha": 2888,
  "Ġexhausted": 2889,
  "Ġexit": 2890,
  "Ġexp": 2891,
  "Ġexpect": 2892,
  "Ġexpected": 2893,
  "Ġexpecting": 2894,
  "Ġexpensive": 2895,
  "Ġexper": 2896,
  "Ġexperien": 2897,
  "Ġexperience": 2898,
  "Ġexperienced": 2899,
  "Ġexperiences": 2900,
  "Ġexpert": 2901,
  "Ġexpl": 2902,
  "Ġexplain": 2903,
  "Ġexplained": 2904,
  "Ġexplaining": 2905,
  "Ġexplains": 2906,
  "Ġexplo": 2907,
  "Ġexploded": 2908,
  "Ġexplor": 2909,
  "Ġexploration": 2910,
  "Ġexplore": 2911,
  "Ġexplored": 2912,
  "Ġexplorer": 2913,
  "Ġexplorers": 2914,
  "Ġexploring": 2915,
  "Ġexpress": 2916,
  "Ġexpression": 2917,
  "Ġext": 2918,
  "Ġextra": 2919,
  "Ġextraordinary": 2920,
  "Ġey": 2921,
  "Ġeye": 2922,
  "Ġeyes": 2923,
  "Ġf": 2924,
  "Ġfa": 2925,
  "Ġfab": 2926,
  "Ġfabric": 2927,
  "Ġface": 2928,
  "Ġfaced": 2929,
  "Ġfaces": 2930,
  "Ġfacing": 2931,
  "Ġfact": 2932,
  "Ġfactory": 2933,
  "Ġfacts": 2934,
  "Ġfade": 2935,
  "Ġfaded": 2936,
  "Ġfailed": 2937,
  "Ġfaint": 2938,
  "Ġfair": 2939,
  "Ġfairies": 2940,
  "Ġfairy": 2941,
  "Ġfaith": 2942,
  "Ġfake": 2943,
  "Ġfall": 2944,
  "Ġfallen": 2945,
  "Ġfalling": 2946,
  "Ġfalls": 2947,
  "Ġfam": 2948,
  "Ġfamil": 2949,
  "Ġfamiliar": 2950,
  "Ġfamilies": 2951,
  "Ġfamily": 2952,
  "Ġfamous": 2953,
  "Ġfan": 2954,
  "Ġfancy": 2955,
  "Ġfans": 2956,
  "Ġfantastic": 2957,
  "Ġfar": 2958,
  "Ġfaraway": 2959,
  "Ġfarm": 2960,
  "Ġfarmer": 2961,
  "Ġfarmers": 2962,
  "Ġfart": 2963,
  "Ġfarther": 2964,
  "Ġfarthest": 2965,
  "Ġfasc": 2966,
  "Ġfascin": 2967,
  "Ġfascinated": 2968,
  "Ġfascinating": 2969,
  "Ġfash": 2970,
  "Ġfashion": 2971,
  "Ġfast": 2972,
  "Ġfaster": 2973,
  "Ġfastest": 2974,
  "Ġfat": 2975,
  "Ġfather": 2976,
  "Ġfaucet": 2977,
  "Ġfault": 2978,
  "Ġfav": 2979,
  "Ġfavor": 2980,
  "Ġfavorite": 2981,
  "Ġfavour": 2982,
  "Ġfavourite": 2983,
  "Ġfe": 2984,
  "Ġfear": 2985,
  "Ġfearful": 2986,
  "Ġfears": 2987,
  "Ġfeast": 2988,
  "Ġfeather": 2989,
  "Ġfeathers": 2990,
  "Ġfed": 2991,
  "Ġfeed": 2992,
  "Ġfeeding": 2993,
  "Ġfeel": 2994,
  "Ġfeeling": 2995,
  "Ġfeelings": 2996,
  "Ġfeels": 2997,
  "Ġfeet": 2998,
  "Ġfell": 2999,
  "Ġfelt": 3000,
  "Ġfence": 3001,
  "Ġfest": 3002,
  "Ġfestival": 3003,
  "Ġfet": 3004,
  "Ġfetch": 3005,
  "Ġfetched": 3006,
  "Ġfever": 3007,
  "Ġfew": 3008,
  "Ġfi": 3009,
  "Ġfield": 3010,
  "Ġfields": 3011,
  "Ġfier": 3012,
  "Ġfierce": 3013,
  "Ġfif": 3014,
  "Ġfig": 3015,
  "Ġfight": 3016,
  "Ġfighting": 3017,
  "Ġfights": 3018,
  "Ġfigure": 3019,
  "Ġfigured": 3020,
  "Ġfigures": 3021,
  "Ġfil": 3022,
  "Ġfile": 3023,
  "Ġfiles": 3024,
  "Ġfill": 3025,
  "Ġfilled": 3026,
  "Ġfilling": 3027,
  "Ġfills": 3028,
  "Ġfilm": 3029,
  "Ġfilms": 3030,
  "Ġfilthy": 3031,
  "Ġfin": 3032,
  "Ġfinal": 3033,
  "Ġfinally": 3034,
  "Ġfind": 3035,
  "Ġfinding": 3036,
  "Ġfinds": 3037,
  "Ġfine": 3038,
  "Ġfing": 3039,
  "Ġfinger": 3040,
  "Ġfingers": 3041,
  "Ġfinish": 3042,
  "Ġfinished": 3043,
  "Ġfinishes": 3044,
  "Ġfinishing": 3045,
  "Ġfins": 3046,
  "Ġfire": 3047,
  "Ġfiref": 3048,
  "Ġfirefight": 3049,
  "Ġfirefighter": 3050,
  "Ġfirefighters": 3051,
  "Ġfireflies": 3052,
  "Ġfirefly": 3053,
  "Ġfireman": 3054,
  "Ġfiremen": 3055,
  "Ġfireplace": 3056,
  "Ġfires": 3057,
  "Ġfirework": 3058,
  "Ġfireworks": 3059,
  "Ġfirm": 3060,
  "Ġfirmly": 3061,
  "Ġfirst": 3062,
  "Ġfis": 3063,
  "Ġfish": 3064,
  "Ġfisher": 3065,
  "Ġfisherman": 3066,
  "Ġfishes": 3067,
  "Ġfishing": 3068,
  "Ġfist": 3069,
  "Ġfit": 3070,
  "Ġfits": 3071,
  "Ġfive": 3072,
  "Ġfix": 3073,
  "Ġfixed": 3074,
  "Ġfixer": 3075,
  "Ġfixing": 3076,
  "Ġfl": 3077,
  "Ġflag": 3078,
  "Ġflags": 3079,
  "Ġflame": 3080,
  "Ġflames": 3081,
  "Ġflap": 3082,
  "Ġflapped": 3083,
  "Ġflapping": 3084,
  "Ġflaps": 3085,
  "Ġflash": 3086,
  "Ġflashed": 3087,
  "Ġflashes": 3088,
  "Ġflashing": 3089,
  "Ġflashlight": 3090,
  "Ġflat": 3091,
  "Ġflav": 3092,
  "Ġflavor": 3093,
  "Ġflavors": 3094,
  "Ġfle": 3095,
  "Ġflea": 3096,
  "Ġfleas": 3097,
  "Ġflew": 3098,
  "Ġflexible": 3099,
  "Ġflick": 3100,
  "Ġflies": 3101,
  "Ġflight": 3102,
  "Ġflip": 3103,
  "Ġflipped": 3104,
  "Ġflips": 3105,
  "Ġflo": 3106,
  "Ġfloat": 3107,
  "Ġfloated": 3108,
  "Ġfloating": 3109,
  "Ġfloats": 3110,
  "Ġflock": 3111,
  "Ġflood": 3112,
  "Ġfloor": 3113,
  "Ġfloors": 3114,
  "Ġflour": 3115,
  "Ġflow": 3116,
  "Ġflower": 3117,
  "Ġflowers": 3118,
  "Ġflowing": 3119,
  "Ġflown": 3120,
  "Ġfluffy": 3121,
  "Ġflute": 3122,
  "Ġflutter": 3123,
  "Ġfluttered": 3124,
  "Ġfluttering": 3125,
  "Ġfly": 3126,
  "Ġflying": 3127,
  "Ġfo": 3128,
  "Ġfoam": 3129,
  "Ġfocus": 3130,
  "Ġfocused": 3131,
  "Ġfog": 3132,
  "Ġfoggy": 3133,
  "Ġfold": 3134,
  "Ġfolded": 3135,
  "Ġfolder": 3136,
  "Ġfolding": 3137,
  "Ġfolds": 3138,
  "Ġfollow": 3139,
  "Ġfollowed": 3140,
  "Ġfollowing": 3141,
  "Ġfollows": 3142,
  "Ġfond": 3143,
  "Ġfood": 3144,
  "Ġfoods": 3145,
  "Ġfool": 3146,
  "Ġfooled": 3147,
  "Ġfoolish": 3148,
  "Ġfoot": 3149,
  "Ġfootball": 3150,
  "Ġfootprints": 3151,
  "Ġfootsteps": 3152,
  "Ġfor": 3153,
  "Ġforce": 3154,
  "Ġfore": 3155,
  "Ġforehead": 3156,
  "Ġforeshadow": 3157,
  "Ġforest": 3158,
  "Ġforests": 3159,
  "Ġforever": 3160,
  "Ġforg": 3161,
  "Ġforgave": 3162,
  "Ġforget": 3163,
  "Ġforgets": 3164,
  "Ġforgetting": 3165,
  "Ġforgi": 3166,
  "Ġforgive": 3167,
  "Ġforgiven": 3168,
  "Ġforgiveness": 3169,
  "Ġforgives": 3170,
  "Ġforgiving": 3171,
  "Ġforgot": 3172,
  "Ġforgotten": 3173,
  "Ġfork": 3174,
  "Ġforks": 3175,
  "Ġform": 3176,
  "Ġformed": 3177,
  "Ġfort": 3178,
  "Ġforth": 3179,
  "Ġforts": 3180,
  "Ġforward": 3181,
  "Ġfought": 3182,
  "Ġfound": 3183,
  "Ġfountain": 3184,
  "Ġfour": 3185,
  "Ġfox": 3186,
  "Ġfoxes": 3187,
  "Ġfr": 3188,
  "Ġfragile": 3189,
  "Ġframe": 3190,
  "Ġfre": 3191,
  "Ġfree": 3192,
  "Ġfreed": 3193,
  "Ġfreedom": 3194,
  "Ġfreez": 3195,
  "Ġfreeze": 3196,
  "Ġfreezer": 3197,
  "Ġfreezing": 3198,
  "Ġfresh": 3199,
  "Ġfridge": 3200,
  "Ġfriend": 3201,
  "Ġfriendly": 3202,
  "Ġfriends": 3203,
  "Ġfriendship": 3204,
  "Ġfriendships": 3205,
  "Ġfries": 3206,
  "Ġfright": 3207,
  "Ġfrightened": 3208,
  "Ġfro": 3209,
  "Ġfrog": 3210,
  "Ġfrogs": 3211,
  "Ġfrom": 3212,
  "Ġfront": 3213,
  "Ġfrost": 3214,
  "Ġfrosting": 3215,
  "Ġfrown": 3216,
  "Ġfrowned": 3217,
  "Ġfrowning": 3218,
  "Ġfrowns": 3219,
  "Ġfroze": 3220,
  "Ġfrozen": 3221,
  "Ġfruit": 3222,
  "Ġfruits": 3223,
  "Ġfrustr": 3224,
  "Ġfrustrated": 3225,
  "Ġfrustration": 3226,
  "Ġfu": 3227,
  "Ġfuel": 3228,
  "Ġfull": 3229,
  "Ġfun": 3230,
  "Ġfunn": 3231,
  "Ġfunny": 3232,
  "Ġfur": 3233,
  "Ġfurious": 3234,
  "Ġfurniture": 3235,
  "Ġfurry": 3236,
  "Ġfurt": 3237,
  "Ġfurther": 3238,
  "Ġfut": 3239,
  "Ġfuture": 3240,
  "Ġfuzzy": 3241,
  "Ġg": 3242,
  "Ġgain": 3243,
  "Ġgained": 3244,
  "Ġgall": 3245,
  "Ġgame": 3246,
  "Ġgames": 3247,
  "Ġgap": 3248,
  "Ġgar": 3249,
  "Ġgarage": 3250,
  "Ġgarbage": 3251,
  "Ġgarden": 3252,
  "Ġgardener": 3253,
  "Ġgardens": 3254,
  "Ġgas": 3255,
  "Ġgasp": 3256,
  "Ġgasped": 3257,
  "Ġgasps": 3258,
  "Ġgate": 3259,
  "Ġgates": 3260,
  "Ġgather": 3261,
  "Ġgathered": 3262,
  "Ġgathering": 3263,
  "Ġgave": 3264,
  "Ġgaz": 3265,
  "Ġgaze": 3266,
  "Ġgazed": 3267,
  "Ġgazing": 3268,
  "Ġgear": 3269,
  "Ġgears": 3270,
  "Ġgeese": 3271,
  "Ġgem": 3272,
  "Ġgems": 3273,
  "Ġgen": 3274,
  "Ġgener": 3275,
  "Ġgenerosity": 3276,
  "Ġgenerous": 3277,
  "Ġgenie": 3278,
  "Ġgent": 3279,
  "Ġgentle": 3280,
  "Ġgently": 3281,
  "Ġgerm": 3282,
  "Ġgerms": 3283,
  "Ġgest": 3284,
  "Ġgesture": 3285,
  "Ġget": 3286,
  "Ġgets": 3287,
  "Ġgetting": 3288,
  "Ġghost": 3289,
  "Ġghosts": 3290,
  "Ġgi": 3291,
  "Ġgiant": 3292,
  "Ġgif": 3293,
  "Ġgift": 3294,
  "Ġgifted": 3295,
  "Ġgifts": 3296,
  "Ġgigg": 3297,
  "Ġgiggle": 3298,
  "Ġgiggled": 3299,
  "Ġgiggles": 3300,
  "Ġgiggling": 3301,
  "Ġgir": 3302,
  "Ġgiraffe": 3303,
  "Ġgiraffes": 3304,
  "Ġgirl": 3305,
  "Ġgirls": 3306,
  "Ġgive": 3307,
  "Ġgiven": 3308,
  "Ġgives": 3309,
  "Ġgiving": 3310,
  "Ġgl": 3311,
  "Ġglad": 3312,
  "Ġglared": 3313,
  "Ġglass": 3314,
  "Ġglasses": 3315,
  "Ġglee": 3316,
  "Ġglided": 3317,
  "Ġglimmering": 3318,
  "Ġglitt": 3319,
  "Ġglitter": 3320,
  "Ġglittered": 3321,
  "Ġglittering": 3322,
  "Ġglo": 3323,
  "Ġglob": 3324,
  "Ġglobe": 3325,
  "Ġgloomy": 3326,
  "Ġglove": 3327,
  "Ġgloves": 3328,
  "Ġglow": 3329,
  "Ġglowed": 3330,
  "Ġglowing": 3331,
  "Ġglows": 3332,
  "Ġglue": 3333,
  "Ġglued": 3334,
  "Ġgo": 3335,
  "Ġgoal": 3336,
  "Ġgoals": 3337,
  "Ġgoat": 3338,
  "Ġgoats": 3339,
  "Ġgobbled": 3340,
  "Ġgod": 3341,
  "Ġgoes": 3342,
  "Ġgoggles": 3343,
  "Ġgoing": 3344,
  "Ġgold": 3345,
  "Ġgolden": 3346,
  "Ġgolf": 3347,
  "Ġgone": 3348,
  "Ġgonna": 3349,
  "Ġgoo": 3350,
  "Ġgood": 3351,
  "Ġgoodbye": 3352,
  "Ġgoodbyes": 3353,
  "Ġgoodies": 3354,
  "Ġgoodness": 3355,
  "Ġgoodnight": 3356,
  "Ġgooey": 3357,
  "Ġgoose": 3358,
  "Ġgor": 3359,
  "Ġgorilla": 3360,
  "Ġgot": 3361,
  "Ġgotten": 3362,
  "Ġgr": 3363,
  "Ġgra": 3364,
  "Ġgrab": 3365,
  "Ġgrabbed": 3366,
  "Ġgrabbing": 3367,
  "Ġgrabs": 3368,
  "Ġgrace": 3369,
  "Ġgraceful": 3370,
  "Ġgracefully": 3371,
  "Ġgrand": 3372,
  "Ġgrandchild": 3373,
  "Ġgrandd": 3374,
  "Ġgranddaughter": 3375,
  "Ġgrandfather": 3376,
  "Ġgrandma": 3377,
  "Ġgrandmother": 3378,
  "Ġgrandpa": 3379,
  "Ġgrandparent": 3380,
  "Ġgrandparents": 3381,
  "Ġgrandson": 3382,
  "Ġgrant": 3383,
  "Ġgranted": 3384,
  "Ġgrape": 3385,
  "Ġgrapes": 3386,
  "Ġgrass": 3387,
  "Ġgrassho": 3388,
  "Ġgrasshopper": 3389,
  "Ġgrassy": 3390,
  "Ġgrat": 3391,
  "Ġgrate": 3392,
  "Ġgrateful": 3393,
  "Ġgratitude": 3394,
  "Ġgray": 3395,
  "Ġgre": 3396,
  "Ġgreat": 3397,
  "Ġgreedy": 3398,
  "Ġgreen": 3399,
  "Ġgreet": 3400,
  "Ġgreeted": 3401,
  "Ġgrew": 3402,
  "Ġgrey": 3403,
  "Ġgri": 3404,
  "Ġgrill": 3405,
  "Ġgrin": 3406,
  "Ġgrinned": 3407,
  "Ġgrip": 3408,
  "Ġgro": 3409,
  "Ġgroan": 3410,
  "Ġgroaned": 3411,
  "Ġgrocer": 3412,
  "Ġgroceries": 3413,
  "Ġgrocery": 3414,
  "Ġgroom": 3415,
  "Ġgross": 3416,
  "Ġground": 3417,
  "Ġgroup": 3418,
  "Ġgroups": 3419,
  "Ġgrow": 3420,
  "Ġgrowing": 3421,
  "Ġgrowl": 3422,
  "Ġgrowled": 3423,
  "Ġgrowling": 3424,
  "Ġgrowls": 3425,
  "Ġgrown": 3426,
  "Ġgrows": 3427,
  "Ġgrumbled": 3428,
  "Ġgrumpy": 3429,
  "Ġgu": 3430,
  "Ġguard": 3431,
  "Ġguardian": 3432,
  "Ġguarding": 3433,
  "Ġguards": 3434,
  "Ġguess": 3435,
  "Ġguessed": 3436,
  "Ġguesses": 3437,
  "Ġguessing": 3438,
  "Ġguest": 3439,
  "Ġguests": 3440,
  "Ġguide": 3441,
  "Ġguilty": 3442,
  "Ġguit": 3443,
  "Ġguitar": 3444,
  "Ġguitars": 3445,
  "Ġgum": 3446,
  "Ġgun": 3447,
  "Ġguns": 3448,
  "Ġgust": 3449,
  "Ġguy": 3450,
  "Ġguys": 3451,
  "Ġgym": 3452,
  "Ġh": 3453,
  "Ġha": 3454,
  "Ġhabit": 3455,
  "Ġhad": 3456,
  "Ġhadn": 3457,
  "Ġhair": 3458,
  "Ġhaircut": 3459,
  "Ġhaircuts": 3460,
  "Ġhaird": 3461,
  "Ġhairdress": 3462,
  "Ġhairdresser": 3463,
  "Ġhairy": 3464,
  "Ġhalf": 3465,
  "Ġhall": 3466,
  "Ġhallway": 3467,
  "Ġhalves": 3468,
  "Ġham": 3469,
  "Ġhammer": 3470,
  "Ġhand": 3471,
  "Ġhanded": 3472,
  "Ġhandful": 3473,
  "Ġhanding": 3474,
  "Ġhandle": 3475,
  "Ġhands": 3476,
  "Ġhandsome": 3477,
  "Ġhang": 3478,
  "Ġhanger": 3479,
  "Ġhangers": 3480,
  "Ġhanging": 3481,
  "Ġhangs": 3482,
  "Ġhapp": 3483,
  "Ġhappen": 3484,
  "Ġhappened": 3485,
  "Ġhappening": 3486,
  "Ġhappens": 3487,
  "Ġhappier": 3488,
  "Ġhappiest": 3489,
  "Ġhappily": 3490,
  "Ġhappiness": 3491,
  "Ġhappy": 3492,
  "Ġhar": 3493,
  "Ġharb": 3494,
  "Ġharbor": 3495,
  "Ġhard": 3496,
  "Ġharder": 3497,
  "Ġhardest": 3498,
  "Ġhardly": 3499,
  "Ġharm": 3500,
  "Ġharmless": 3501,
  "Ġharsh": 3502,
  "Ġhas": 3503,
  "Ġhat": 3504,
  "Ġhatch": 3505,
  "Ġhatched": 3506,
  "Ġhate": 3507,
  "Ġhated": 3508,
  "Ġhates": 3509,
  "Ġhats": 3510,
  "Ġhave": 3511,
  "Ġhaven": 3512,
  "Ġhaving": 3513,
  "Ġhawk": 3514,
  "Ġhay": 3515,
  "Ġhe": 3516,
  "Ġhead": 3517,
  "Ġheaded": 3518,
  "Ġheading": 3519,
  "Ġheads": 3520,
  "Ġheal": 3521,
  "Ġhealed": 3522,
  "Ġhealing": 3523,
  "Ġhealth": 3524,
  "Ġhealthier": 3525,
  "Ġhealthy": 3526,
  "Ġhear": 3527,
  "Ġheard": 3528,
  "Ġhearing": 3529,
  "Ġhears": 3530,
  "Ġheart": 3531,
  "Ġheartbroken": 3532,
  "Ġhearts": 3533,
  "Ġheat": 3534,
  "Ġheav": 3535,
  "Ġheaven": 3536,
  "Ġheavier": 3537,
  "Ġheavy": 3538,
  "Ġhedge": 3539,
  "Ġhedgehog": 3540,
  "Ġheel": 3541,
  "Ġheels": 3542,
  "Ġheight": 3543,
  "Ġhel": 3544,
  "Ġheld": 3545,
  "Ġhelicopter": 3546,
  "Ġhelicopters": 3547,
  "Ġhello": 3548,
  "Ġhelmet": 3549,
  "Ġhelmets": 3550,
  "Ġhelp": 3551,
  "Ġhelped": 3552,
  "Ġhelper": 3553,
  "Ġhelpers": 3554,
  "Ġhelpful": 3555,
  "Ġhelping": 3556,
  "Ġhelpless": 3557,
  "Ġhelps": 3558,
  "Ġhen": 3559,
  "Ġher": 3560,
  "Ġherb": 3561,
  "Ġherbs": 3562,
  "Ġhere": 3563,
  "Ġhero": 3564,
  "Ġheroes": 3565,
  "Ġhers": 3566,
  "Ġherself": 3567,
  "Ġhesit": 3568,
  "Ġhesitant": 3569,
  "Ġhesitated": 3570,
  "Ġhesitation": 3571,
  "Ġhi": 3572,
  "Ġhid": 3573,
  "Ġhidden": 3574,
  "Ġhide": 3575,
  "Ġhider": 3576,
  "Ġhides": 3577,
  "Ġhiding": 3578,
  "Ġhig": 3579,
  "Ġhigh": 3580,
  "Ġhigher": 3581,
  "Ġhighest": 3582,
  "Ġhill": 3583,
  "Ġhills": 3584,
  "Ġhim": 3585,
  "Ġhimself": 3586,
  "Ġhipp": 3587,
  "Ġhippo": 3588,
  "Ġhippos": 3589,
  "Ġhips": 3590,
  "Ġhis": 3591,
  "Ġhiss": 3592,
  "Ġhissed": 3593,
  "Ġhisses": 3594,
  "Ġhissing": 3595,
  "Ġhist": 3596,
  "Ġhistory": 3597,
  "Ġhit": 3598,
  "Ġhits": 3599,
  "Ġhitting": 3600,
  "Ġhive": 3601,
  "Ġho": 3602,
  "Ġhoc": 3603,
  "Ġhockey": 3604,
  "Ġhol": 3605,
  "Ġhold": 3606,
  "Ġholding": 3607,
  "Ġholds": 3608,
  "Ġhole": 3609,
  "Ġholes": 3610,
  "Ġholiday": 3611,
  "Ġhome": 3612,
  "Ġhomes": 3613,
  "Ġhomework": 3614,
  "Ġhon": 3615,
  "Ġhonest": 3616,
  "Ġhonesty": 3617,
  "Ġhoney": 3618,
  "Ġhonk": 3619,
  "Ġhonked": 3620,
  "Ġhonking": 3621,
  "Ġhonks": 3622,
  "Ġhoo": 3623,
  "Ġhood": 3624,
  "Ġhook": 3625,
  "Ġhooks": 3626,
  "Ġhoop": 3627,
  "Ġhoops": 3628,
  "Ġhooves": 3629,
  "Ġhop": 3630,
  "Ġhope": 3631,
  "Ġhoped": 3632,
  "Ġhopeful": 3633,
  "Ġhopes": 3634,
  "Ġhoping": 3635,
  "Ġhopped": 3636,
  "Ġhopping": 3637,
  "Ġhops": 3638,
  "Ġhor": 3639,
  "Ġhoriz": 3640,
  "Ġhorizon": 3641,
  "Ġhorn": 3642,
  "Ġhorns": 3643,
  "Ġhorri": 3644,
  "Ġhorse": 3645,
  "Ġhorses": 3646,
  "Ġhose": 3647,
  "Ġhoses": 3648,
  "Ġhosp": 3649,
  "Ġhospital": 3650,
  "Ġhot": 3651,
  "Ġhotel": 3652,
  "Ġhotter": 3653,
  "Ġhour": 3654,
  "Ġhours": 3655,
  "Ġhouse": 3656,
  "Ġhouses": 3657,
  "Ġhow": 3658,
  "Ġhowever": 3659,
  "Ġhudd": 3660,
  "Ġhug": 3661,
  "Ġhuge": 3662,
  "Ġhugged": 3663,
  "Ġhugging": 3664,
  "Ġhugs": 3665,
  "Ġhum": 3666,
  "Ġhuman": 3667,
  "Ġhumans": 3668,
  "Ġhumble": 3669,
  "Ġhummed": 3670,
  "Ġhumming": 3671,
  "Ġhun": 3672,
  "Ġhundred": 3673,
  "Ġhung": 3674,
  "Ġhungry": 3675,
  "Ġhunt": 3676,
  "Ġhunter": 3677,
  "Ġhunters": 3678,
  "Ġhunting": 3679,
  "Ġhur": 3680,
  "Ġhurricane": 3681,
  "Ġhurried": 3682,
  "Ġhurry": 3683,
  "Ġhurt": 3684,
  "Ġhurting": 3685,
  "Ġhurts": 3686,
  "Ġhus": 3687,
  "Ġhusband": 3688,
  "Ġhut": 3689,
  "Ġice": 3690,
  "Ġicing": 3691,
  "Ġicky": 3692,
  "Ġicy": 3693,
  "Ġide": 3694,
  "Ġidea": 3695,
  "Ġideas": 3696,
  "Ġif": 3697,
  "Ġig": 3698,
  "Ġigloo": 3699,
  "Ġign": 3700,
  "Ġignor": 3701,
  "Ġignorant": 3702,
  "Ġignore": 3703,
  "Ġignored": 3704,
  "Ġignoring": 3705,
  "Ġill": 3706,
  "Ġim": 3707,
  "Ġimag": 3708,
  "Ġimage": 3709,
  "Ġimages": 3710,
  "Ġimaginary": 3711,
  "Ġimagination": 3712,
  "Ġimaginations": 3713,
  "Ġimagine": 3714,
  "Ġimagined": 3715,
  "Ġimagining": 3716,
  "Ġimmediately": 3717,
  "Ġimp": 3718,
  "Ġimpatient": 3719,
  "Ġimport": 3720,
  "Ġimportance": 3721,
  "Ġimportant": 3722,
  "Ġimpossible": 3723,
  "Ġimpress": 3724,
  "Ġimpressed": 3725,
  "Ġimpressive": 3726,
  "Ġimpro": 3727,
  "Ġimprove": 3728,
  "Ġimproved": 3729,
  "Ġimproving": 3730,
  "Ġin": 3731,
  "Ġinc": 3732,
  "Ġinch": 3733,
  "Ġinches": 3734,
  "Ġinchworm": 3735,
  "Ġinclu": 3736,
  "Ġinclude": 3737,
  "Ġincluded": 3738,
  "Ġincluding": 3739,
  "Ġincre": 3740,
  "Ġincrease": 3741,
  "Ġincreased": 3742,
  "Ġincreasing": 3743,
  "Ġincred": 3744,
  "Ġincredible": 3745,
  "Ġind": 3746,
  "Ġindeed": 3747,
  "Ġindepend": 3748,
  "Ġindependent": 3749,
  "Ġinf": 3750,
  "Ġinfant": 3751,
  "Ġing": 3752,
  "Ġingred": 3753,
  "Ġingredient": 3754,
  "Ġingredients": 3755,
  "Ġinj": 3756,
  "Ġinjured": 3757,
  "Ġink": 3758,
  "Ġins": 3759,
  "Ġinse": 3760,
  "Ġinsect": 3761,
  "Ġinsects": 3762,
  "Ġinside": 3763,
  "Ġinsist": 3764,
  "Ġinsisted": 3765,
  "Ġinsisting": 3766,
  "Ġinsp": 3767,
  "Ġinspired": 3768,
  "Ġinst": 3769,
  "Ġinstantly": 3770,
  "Ġinstead": 3771,
  "Ġinstr": 3772,
  "Ġinstruct": 3773,
  "Ġinstructions": 3774,
  "Ġinstrum": 3775,
  "Ġinstrument": 3776,
  "Ġinstruments": 3777,
  "Ġint": 3778,
  "Ġintellig": 3779,
  "Ġintelligence": 3780,
  "Ġintelligent": 3781,
  "Ġintently": 3782,
  "Ġinter": 3783,
  "Ġinterest": 3784,
  "Ġinterested": 3785,
  "Ġinteresting": 3786,
  "Ġinto": 3787,
  "Ġintrigued": 3788,
  "Ġintrod": 3789,
  "Ġintroduc": 3790,
  "Ġintroduce": 3791,
  "Ġintroduced": 3792,
  "Ġinv": 3793,
  "Ġinvent": 3794,
  "Ġinvest": 3795,
  "Ġinvestig": 3796,
  "Ġinvestigate": 3797,
  "Ġinvisible": 3798,
  "Ġinvit": 3799,
  "Ġinvitation": 3800,
  "Ġinvitations": 3801,
  "Ġinvite": 3802,
  "Ġinvited": 3803,
  "Ġinvites": 3804,
  "Ġinviting": 3805,
  "Ġiron": 3806,
  "Ġis": 3807,
  "Ġisland": 3808,
  "Ġisn": 3809,
  "Ġit": 3810,
  "Ġitch": 3811,
  "Ġitchy": 3812,
  "Ġitem": 3813,
  "Ġitems": 3814,
  "Ġits": 3815,
  "Ġitself": 3816,
  "Ġj": 3817,
  "Ġjack": 3818,
  "Ġjacket": 3819,
  "Ġjackets": 3820,
  "Ġjail": 3821,
  "Ġjam": 3822,
  "Ġjar": 3823,
  "Ġjars": 3824,
  "Ġjazz": 3825,
  "Ġje": 3826,
  "Ġjealous": 3827,
  "Ġjeep": 3828,
  "Ġjelly": 3829,
  "Ġjellyfish": 3830,
  "Ġjet": 3831,
  "Ġjets": 3832,
  "Ġjewel": 3833,
  "Ġjewelry": 3834,
  "Ġjewels": 3835,
  "Ġjing": 3836,
  "Ġjo": 3837,
  "Ġjob": 3838,
  "Ġjobs": 3839,
  "Ġjog": 3840,
  "Ġjogged": 3841,
  "Ġjogging": 3842,
  "Ġjoin": 3843,
  "Ġjoined": 3844,
  "Ġjoining": 3845,
  "Ġjoins": 3846,
  "Ġjoke": 3847,
  "Ġjoked": 3848,
  "Ġjokes": 3849,
  "Ġjoking": 3850,
  "Ġjolly": 3851,
  "Ġjourn": 3852,
  "Ġjournal": 3853,
  "Ġjourney": 3854,
  "Ġjourneys": 3855,
  "Ġjoy": 3856,
  "Ġjoyful": 3857,
  "Ġjoyfully": 3858,
  "Ġju": 3859,
  "Ġjud": 3860,
  "Ġjudge": 3861,
  "Ġjudges": 3862,
  "Ġjug": 3863,
  "Ġjugg": 3864,
  "Ġjuice": 3865,
  "Ġjuicy": 3866,
  "Ġjump": 3867,
  "Ġjumped": 3868,
  "Ġjumper": 3869,
  "Ġjumping": 3870,
  "Ġjumps": 3871,
  "Ġjungle": 3872,
  "Ġjunk": 3873,
  "Ġjust": 3874,
  "Ġk": 3875,
  "Ġkangaroo": 3876,
  "Ġkangaroos": 3877,
  "Ġkay": 3878,
  "Ġkayak": 3879,
  "Ġke": 3880,
  "Ġkeep": 3881,
  "Ġkeeper": 3882,
  "Ġkeeping": 3883,
  "Ġkeeps": 3884,
  "Ġkept": 3885,
  "Ġketchup": 3886,
  "Ġkey": 3887,
  "Ġkeyhole": 3888,
  "Ġkeys": 3889,
  "Ġkick": 3890,
  "Ġkicked": 3891,
  "Ġkicking": 3892,
  "Ġkicks": 3893,
  "Ġkid": 3894,
  "Ġkids": 3895,
  "Ġkilled": 3896,
  "Ġkind": 3897,
  "Ġkinder": 3898,
  "Ġkindly": 3899,
  "Ġkindness": 3900,
  "Ġkinds": 3901,
  "Ġking": 3902,
  "Ġkingdom": 3903,
  "Ġkings": 3904,
  "Ġkiss": 3905,
  "Ġkissed": 3906,
  "Ġkisses": 3907,
  "Ġkissing": 3908,
  "Ġkit": 3909,
  "Ġkitchen": 3910,
  "Ġkite": 3911,
  "Ġkites": 3912,
  "Ġkitten": 3913,
  "Ġkittens": 3914,
  "Ġkitty": 3915,
  "Ġkn": 3916,
  "Ġkne": 3917,
  "Ġknee": 3918,
  "Ġkneel": 3919,
  "Ġkneeled": 3920,
  "Ġkneeling": 3921,
  "Ġknees": 3922,
  "Ġknelt": 3923,
  "Ġknew": 3924,
  "Ġknife": 3925,
  "Ġknight": 3926,
  "Ġknights": 3927,
  "Ġknit": 3928,
  "Ġknives": 3929,
  "Ġknob": 3930,
  "Ġknobs": 3931,
  "Ġknock": 3932,
  "Ġknocked": 3933,
  "Ġknocking": 3934,
  "Ġknocks": 3935,
  "Ġknot": 3936,
  "Ġknots": 3937,
  "Ġknow": 3938,
  "Ġknowing": 3939,
  "Ġknowled": 3940,
  "Ġknowledge": 3941,
  "Ġknown": 3942,
  "Ġknows": 3943,
  "Ġl": 3944,
  "Ġla": 3945,
  "Ġlab": 3946,
  "Ġlabel": 3947,
  "Ġlabels": 3948,
  "Ġlace": 3949,
  "Ġlaces": 3950,
  "Ġlad": 3951,
  "Ġladder": 3952,
  "Ġlady": 3953,
  "Ġladyb": 3954,
  "Ġladybug": 3955,
  "Ġlaid": 3956,
  "Ġlake": 3957,
  "Ġlamb": 3958,
  "Ġlamp": 3959,
  "Ġland": 3960,
  "Ġlanded": 3961,
  "Ġlanding": 3962,
  "Ġlands": 3963,
  "Ġlandscape": 3964,
  "Ġlangu": 3965,
  "Ġlanguage": 3966,
  "Ġlanguages": 3967,
  "Ġlap": 3968,
  "Ġlapt": 3969,
  "Ġlaptop": 3970,
  "Ġlar": 3971,
  "Ġlarge": 3972,
  "Ġlarger": 3973,
  "Ġlaser": 3974,
  "Ġlast": 3975,
  "Ġlate": 3976,
  "Ġlater": 3977,
  "Ġlaug": 3978,
  "Ġlaugh": 3979,
  "Ġlaughed": 3980,
  "Ġlaughing": 3981,
  "Ġlaughs": 3982,
  "Ġlaught": 3983,
  "Ġlaughter": 3984,
  "Ġlaund": 3985,
  "Ġlaundry": 3986,
  "Ġlava": 3987,
  "Ġlaw": 3988,
  "Ġlawn": 3989,
  "Ġlaws": 3990,
  "Ġlawy": 3991,
  "Ġlawyer": 3992,
  "Ġlay": 3993,
  "Ġlaying": 3994,
  "Ġlazy": 3995,
  "Ġle": 3996,
  "Ġlead": 3997,
  "Ġleader": 3998,
  "Ġleading": 3999,
  "Ġleads": 4000,
  "Ġleaf": 4001,
  "Ġleak": 4002,
  "Ġleaking": 4003,
  "Ġlean": 4004,
  "Ġleaned": 4005,
  "Ġleaning": 4006,
  "Ġleans": 4007,
  "Ġleap": 4008,
  "Ġleapt": 4009,
  "Ġlear": 4010,
  "Ġlearn": 4011,
  "Ġlearned": 4012,
  "Ġlearner": 4013,
  "Ġlearning": 4014,
  "Ġlearns": 4015,
  "Ġlearnt": 4016,
  "Ġleash": 4017,
  "Ġleast": 4018,
  "Ġleather": 4019,
  "Ġleave": 4020,
  "Ġleaves": 4021,
  "Ġleaving": 4022,
  "Ġlecture": 4023,
  "Ġlectures": 4024,
  "Ġled": 4025,
  "Ġleft": 4026,
  "Ġleg": 4027,
  "Ġlegs": 4028,
  "Ġlem": 4029,
  "Ġlemon": 4030,
  "Ġlemonade": 4031,
  "Ġlemons": 4032,
  "Ġlend": 4033,
  "Ġlending": 4034,
  "Ġlent": 4035,
  "Ġleop": 4036,
  "Ġleopard": 4037,
  "Ġless": 4038,
  "Ġlesson": 4039,
  "Ġlessons": 4040,
  "Ġlet": 4041,
  "Ġlets": 4042,
  "Ġletter": 4043,
  "Ġletters": 4044,
  "Ġletting": 4045,
  "Ġlettuce": 4046,
  "Ġlevel": 4047,
  "Ġlever": 4048,
  "Ġlevers": 4049,
  "Ġli": 4050,
  "Ġlibr": 4051,
  "Ġlibrarian": 4052,
  "Ġlibrary": 4053,
  "Ġlic": 4054,
  "Ġlicense": 4055,
  "Ġlick": 4056,
  "Ġlicked": 4057,
  "Ġlicking": 4058,
  "Ġlicks": 4059,
  "Ġlid": 4060,
  "Ġlie": 4061,
  "Ġlied": 4062,
  "Ġlies": 4063,
  "Ġlife": 4064,
  "Ġlift": 4065,
  "Ġlifted": 4066,
  "Ġlifting": 4067,
  "Ġlifts": 4068,
  "Ġlight": 4069,
  "Ġlighter": 4070,
  "Ġlighting": 4071,
  "Ġlightning": 4072,
  "Ġlights": 4073,
  "Ġlike": 4074,
  "Ġliked": 4075,
  "Ġlikes": 4076,
  "Ġlily": 4077,
  "Ġlim": 4078,
  "Ġlime": 4079,
  "Ġlimes": 4080,
  "Ġlimp": 4081,
  "Ġline": 4082,
  "Ġlined": 4083,
  "Ġlines": 4084,
  "Ġlion": 4085,
  "Ġlions": 4086,
  "Ġlip": 4087,
  "Ġlips": 4088,
  "Ġlipstick": 4089,
  "Ġliqu": 4090,
  "Ġliquid": 4091,
  "Ġlist": 4092,
  "Ġlisten": 4093,
  "Ġlistened": 4094,
  "Ġlistener": 4095,
  "Ġlistening": 4096,
  "Ġlistens": 4097,
  "Ġlit": 4098,
  "Ġlittle": 4099,
  "Ġlive": 4100,
  "Ġlived": 4101,
  "Ġlively": 4102,
  "Ġlives": 4103,
  "Ġliving": 4104,
  "Ġliz": 4105,
  "Ġlizard": 4106,
  "Ġlizards": 4107,
  "Ġlo": 4108,
  "Ġload": 4109,
  "Ġloaded": 4110,
  "Ġloading": 4111,
  "Ġloc": 4112,
  "Ġlocal": 4113,
  "Ġlock": 4114,
  "Ġlocked": 4115,
  "Ġlocks": 4116,
  "Ġlog": 4117,
  "Ġlogs": 4118,
  "Ġlollipop": 4119,
  "Ġlollipops": 4120,
  "Ġlon": 4121,
  "Ġlonely": 4122,
  "Ġlong": 4123,
  "Ġlonger": 4124,
  "Ġlongest": 4125,
  "Ġloo": 4126,
  "Ġlook": 4127,
  "Ġlooked": 4128,
  "Ġlooking": 4129,
  "Ġlooks": 4130,
  "Ġloop": 4131,
  "Ġloops": 4132,
  "Ġloose": 4133,
  "Ġlose": 4134,
  "Ġloses": 4135,
  "Ġlosing": 4136,
  "Ġlost": 4137,
  "Ġlot": 4138,
  "Ġlotion": 4139,
  "Ġlots": 4140,
  "Ġloud": 4141,
  "Ġlouder": 4142,
  "Ġloudest": 4143,
  "Ġloudly": 4144,
  "Ġlove": 4145,
  "Ġloved": 4146,
  "Ġlovely": 4147,
  "Ġloves": 4148,
  "Ġloving": 4149,
  "Ġlow": 4150,
  "Ġlower": 4151,
  "Ġlowered": 4152,
  "Ġloyal": 4153,
  "Ġloyalty": 4154,
  "Ġluck": 4155,
  "Ġluckiest": 4156,
  "Ġluckily": 4157,
  "Ġlucky": 4158,
  "Ġluggage": 4159,
  "Ġlull": 4160,
  "Ġlumber": 4161,
  "Ġlump": 4162,
  "Ġlunch": 4163,
  "Ġlunchtime": 4164,
  "Ġlung": 4165,
  "Ġlungs": 4166,
  "Ġluxu": 4167,
  "Ġluxury": 4168,
  "Ġlying": 4169,
  "Ġm": 4170,
  "Ġma": 4171,
  "Ġmach": 4172,
  "Ġmachine": 4173,
  "Ġmachines": 4174,
  "Ġmad": 4175,
  "Ġmade": 4176,
  "Ġmag": 4177,
  "Ġmagaz": 4178,
  "Ġmagazine": 4179,
  "Ġmagazines": 4180,
  "Ġmagic": 4181,
  "Ġmagical": 4182,
  "Ġmagician": 4183,
  "Ġmagn": 4184,
  "Ġmagnet": 4185,
  "Ġmagnets": 4186,
  "Ġmagnif": 4187,
  "Ġmagnifying": 4188,
  "Ġmail": 4189,
  "Ġmailbox": 4190,
  "Ġmailed": 4191,
  "Ġmailing": 4192,
  "Ġmailman": 4193,
  "Ġmajest": 4194,
  "Ġmake": 4195,
  "Ġmaker": 4196,
  "Ġmakes": 4197,
  "Ġmakeup": 4198,
  "Ġmaking": 4199,
  "Ġmall": 4200,
  "Ġmama": 4201,
  "Ġman": 4202,
  "Ġmanag": 4203,
  "Ġmanage": 4204,
  "Ġmanaged": 4205,
  "Ġmanager": 4206,
  "Ġmane": 4207,
  "Ġmanners": 4208,
  "Ġmany": 4209,
  "Ġmap": 4210,
  "Ġmaps": 4211,
  "Ġmar": 4212,
  "Ġmarble": 4213,
  "Ġmarbles": 4214,
  "Ġmarch": 4215,
  "Ġmarched": 4216,
  "Ġmarching": 4217,
  "Ġmark": 4218,
  "Ġmarked": 4219,
  "Ġmarker": 4220,
  "Ġmarkers": 4221,
  "Ġmarket": 4222,
  "Ġmarking": 4223,
  "Ġmarks": 4224,
  "Ġmarriage": 4225,
  "Ġmarried": 4226,
  "Ġmarry": 4227,
  "Ġmarshmallow": 4228,
  "Ġmarshmallows": 4229,
  "Ġmarve": 4230,
  "Ġmarvel": 4231,
  "Ġmask": 4232,
  "Ġmasks": 4233,
  "Ġmass": 4234,
  "Ġmassage": 4235,
  "Ġmassages": 4236,
  "Ġmast": 4237,
  "Ġmaster": 4238,
  "Ġmasterpiece": 4239,
  "Ġmat": 4240,
  "Ġmatch": 4241,
  "Ġmatched": 4242,
  "Ġmatches": 4243,
  "Ġmatching": 4244,
  "Ġmate": 4245,
  "Ġmater": 4246,
  "Ġmaterial": 4247,
  "Ġmaterials": 4248,
  "Ġmatey": 4249,
  "Ġmath": 4250,
  "Ġmats": 4251,
  "Ġmatt": 4252,
  "Ġmatter": 4253,
  "Ġmattered": 4254,
  "Ġmatters": 4255,
  "Ġmattress": 4256,
  "Ġmay": 4257,
  "Ġmaybe": 4258,
  "Ġmayor": 4259,
  "Ġmaze": 4260,
  "Ġme": 4261,
  "Ġmeadow": 4262,
  "Ġmeadows": 4263,
  "Ġmeal": 4264,
  "Ġmeals": 4265,
  "Ġmean": 4266,
  "Ġmeaning": 4267,
  "Ġmeans": 4268,
  "Ġmeant": 4269,
  "Ġmeas": 4270,
  "Ġmeasure": 4271,
  "Ġmeasured": 4272,
  "Ġmeasuring": 4273,
  "Ġmeat": 4274,
  "Ġmechanic": 4275,
  "Ġmed": 4276,
  "Ġmedal": 4277,
  "Ġmedals": 4278,
  "Ġmedic": 4279,
  "Ġmedicine": 4280,
  "Ġmeet": 4281,
  "Ġmeeting": 4282,
  "Ġmeets": 4283,
  "Ġmel": 4284,
  "Ġmelody": 4285,
  "Ġmelon": 4286,
  "Ġmelons": 4287,
  "Ġmelt": 4288,
  "Ġmelted": 4289,
  "Ġmelting": 4290,
  "Ġmelts": 4291,
  "Ġmem": 4292,
  "Ġmember": 4293,
  "Ġmembers": 4294,
  "Ġmemories": 4295,
  "Ġmemory": 4296,
  "Ġmen": 4297,
  "Ġmention": 4298,
  "Ġmentioned": 4299,
  "Ġmenu": 4300,
  "Ġmeow": 4301,
  "Ġmeowed": 4302,
  "Ġmeowing": 4303,
  "Ġmeows": 4304,
  "Ġmer": 4305,
  "Ġmerma": 4306,
  "Ġmermaid": 4307,
  "Ġmerry": 4308,
  "Ġmes": 4309,
  "Ġmesmer": 4310,
  "Ġmesmerized": 4311,
  "Ġmess": 4312,
  "Ġmessage": 4313,
  "Ġmessages": 4314,
  "Ġmessed": 4315,
  "Ġmesses": 4316,
  "Ġmessy": 4317,
  "Ġmet": 4318,
  "Ġmetal": 4319,
  "Ġmic": 4320,
  "Ġmice": 4321,
  "Ġmicrophone": 4322,
  "Ġmicroscope": 4323,
  "Ġmicrow": 4324,
  "Ġmicrowave": 4325,
  "Ġmiddle": 4326,
  "Ġmight": 4327,
  "Ġmighty": 4328,
  "Ġmild": 4329,
  "Ġmiles": 4330,
  "Ġmilk": 4331,
  "Ġmill": 4332,
  "Ġmiller": 4333,
  "Ġmin": 4334,
  "Ġmind": 4335,
  "Ġminded": 4336,
  "Ġmindful": 4337,
  "Ġminding": 4338,
  "Ġminds": 4339,
  "Ġmine": 4340,
  "Ġminer": 4341,
  "Ġmineral": 4342,
  "Ġminerals": 4343,
  "Ġmint": 4344,
  "Ġmints": 4345,
  "Ġminute": 4346,
  "Ġminutes": 4347,
  "Ġmirac": 4348,
  "Ġmiracle": 4349,
  "Ġmirr": 4350,
  "Ġmirror": 4351,
  "Ġmis": 4352,
  "Ġmischievous": 4353,
  "Ġmiserable": 4354,
  "Ġmiss": 4355,
  "Ġmissed": 4356,
  "Ġmisses": 4357,
  "Ġmissile": 4358,
  "Ġmissing": 4359,
  "Ġmission": 4360,
  "Ġmist": 4361,
  "Ġmistake": 4362,
  "Ġmistakes": 4363,
  "Ġmister": 4364,
  "Ġmitten": 4365,
  "Ġmittens": 4366,
  "Ġmix": 4367,
  "Ġmixed": 4368,
  "Ġmixer": 4369,
  "Ġmixing": 4370,
  "Ġmixture": 4371,
  "Ġmo": 4372,
  "Ġmoat": 4373,
  "Ġmodel": 4374,
  "Ġmodels": 4375,
  "Ġmoder": 4376,
  "Ġmodern": 4377,
  "Ġmodest": 4378,
  "Ġmold": 4379,
  "Ġmole": 4380,
  "Ġmom": 4381,
  "Ġmoment": 4382,
  "Ġmoments": 4383,
  "Ġmomma": 4384,
  "Ġmommies": 4385,
  "Ġmommy": 4386,
  "Ġmoms": 4387,
  "Ġmon": 4388,
  "Ġmoney": 4389,
  "Ġmonkey": 4390,
  "Ġmonkeys": 4391,
  "Ġmonster": 4392,
  "Ġmonsters": 4393,
  "Ġmonth": 4394,
  "Ġmonths": 4395,
  "Ġmoo": 4396,
  "Ġmood": 4397,
  "Ġmooed": 4398,
  "Ġmoon": 4399,
  "Ġmoonlight": 4400,
  "Ġmoons": 4401,
  "Ġmop": 4402,
  "Ġmor": 4403,
  "Ġmoral": 4404,
  "Ġmore": 4405,
  "Ġmorning": 4406,
  "Ġmos": 4407,
  "Ġmosquito": 4408,
  "Ġmosquitoes": 4409,
  "Ġmost": 4410,
  "Ġmot": 4411,
  "Ġmother": 4412,
  "Ġmotion": 4413,
  "Ġmotor": 4414,
  "Ġmotorcycle": 4415,
  "Ġmotorcycles": 4416,
  "Ġmountain": 4417,
  "Ġmountains": 4418,
  "Ġmouse": 4419,
  "Ġmouth": 4420,
  "Ġmouths": 4421,
  "Ġmov": 4422,
  "Ġmove": 4423,
  "Ġmoved": 4424,
  "Ġmovements": 4425,
  "Ġmoves": 4426,
  "Ġmovie": 4427,
  "Ġmovies": 4428,
  "Ġmoving": 4429,
  "Ġmu": 4430,
  "Ġmuch": 4431,
  "Ġmud": 4432,
  "Ġmuddy": 4433,
  "Ġmuff": 4434,
  "Ġmuffin": 4435,
  "Ġmuffins": 4436,
  "Ġmug": 4437,
  "Ġmugs": 4438,
  "Ġmule": 4439,
  "Ġmum": 4440,
  "Ġmummy": 4441,
  "Ġmunch": 4442,
  "Ġmunched": 4443,
  "Ġmus": 4444,
  "Ġmuscle": 4445,
  "Ġmuscles": 4446,
  "Ġmuseum": 4447,
  "Ġmush": 4448,
  "Ġmushroom": 4449,
  "Ġmushrooms": 4450,
  "Ġmusic": 4451,
  "Ġmusician": 4452,
  "Ġmust": 4453,
  "Ġmustache": 4454,
  "Ġmuster": 4455,
  "Ġmy": 4456,
  "Ġmyself": 4457,
  "Ġmyster": 4458,
  "Ġmysteries": 4459,
  "Ġmysterious": 4460,
  "Ġmystery": 4461,
  "Ġn": 4462,
  "Ġnail": 4463,
  "Ġnails": 4464,
  "Ġnam": 4465,
  "Ġname": 4466,
  "Ġnamed": 4467,
  "Ġnames": 4468,
  "Ġnap": 4469,
  "Ġnapkin": 4470,
  "Ġnapkins": 4471,
  "Ġnapped": 4472,
  "Ġnapping": 4473,
  "Ġnaps": 4474,
  "Ġnasty": 4475,
  "Ġnation": 4476,
  "Ġnatur": 4477,
  "Ġnatural": 4478,
  "Ġnature": 4479,
  "Ġnaughty": 4480,
  "Ġnavy": 4481,
  "Ġne": 4482,
  "Ġnear": 4483,
  "Ġnearby": 4484,
  "Ġneare": 4485,
  "Ġnearest": 4486,
  "Ġnearly": 4487,
  "Ġneat": 4488,
  "Ġneatly": 4489,
  "Ġneck": 4490,
  "Ġnecklace": 4491,
  "Ġnecklaces": 4492,
  "Ġnecks": 4493,
  "Ġnect": 4494,
  "Ġnectar": 4495,
  "Ġneed": 4496,
  "Ġneeded": 4497,
  "Ġneedle": 4498,
  "Ġneedles": 4499,
  "Ġneeds": 4500,
  "Ġneigh": 4501,
  "Ġneighb": 4502,
  "Ġneighbor": 4503,
  "Ġneighborhood": 4504,
  "Ġneighbors": 4505,
  "Ġneighbour": 4506,
  "Ġneighbourhood": 4507,
  "Ġneighbours": 4508,
  "Ġneither": 4509,
  "Ġner": 4510,
  "Ġnervous": 4511,
  "Ġnervously": 4512,
  "Ġnest": 4513,
  "Ġnests": 4514,
  "Ġnet": 4515,
  "Ġnets": 4516,
  "Ġnetwork": 4517,
  "Ġnever": 4518,
  "Ġnew": 4519,
  "Ġnewfound": 4520,
  "Ġnews": 4521,
  "Ġnewsp": 4522,
  "Ġnewspaper": 4523,
  "Ġnewspapers": 4524,
  "Ġnext": 4525,
  "Ġnibb": 4526,
  "Ġnibble": 4527,
  "Ġnibbled": 4528,
  "Ġnice": 4529,
  "Ġnicely": 4530,
  "Ġnicer": 4531,
  "Ġnicest": 4532,
  "Ġniece": 4533,
  "Ġnight": 4534,
  "Ġnightmare": 4535,
  "Ġnightmares": 4536,
  "Ġnights": 4537,
  "Ġnine": 4538,
  "Ġno": 4539,
  "Ġnobody": 4540,
  "Ġnod": 4541,
  "Ġnodded": 4542,
  "Ġnodding": 4543,
  "Ġnods": 4544,
  "Ġnoise": 4545,
  "Ġnoises": 4546,
  "Ġnoisy": 4547,
  "Ġnone": 4548,
  "Ġnood": 4549,
  "Ġnoodles": 4550,
  "Ġnoon": 4551,
  "Ġnorm": 4552,
  "Ġnormal": 4553,
  "Ġnose": 4554,
  "Ġnoses": 4555,
  "Ġnosy": 4556,
  "Ġnot": 4557,
  "Ġnote": 4558,
  "Ġnotebook": 4559,
  "Ġnotes": 4560,
  "Ġnothing": 4561,
  "Ġnotice": 4562,
  "Ġnoticed": 4563,
  "Ġnoticing": 4564,
  "Ġnovel": 4565,
  "Ġnovels": 4566,
  "Ġnow": 4567,
  "Ġnowhere": 4568,
  "Ġnumber": 4569,
  "Ġnumbered": 4570,
  "Ġnumbers": 4571,
  "Ġnur": 4572,
  "Ġnurse": 4573,
  "Ġnurses": 4574,
  "Ġnut": 4575,
  "Ġnuts": 4576,
  "Ġnuzz": 4577,
  "Ġnuzzled": 4578,
  "Ġo": 4579,
  "Ġoak": 4580,
  "Ġoasis": 4581,
  "Ġoat": 4582,
  "Ġoats": 4583,
  "Ġob": 4584,
  "Ġobe": 4585,
  "Ġobedient": 4586,
  "Ġobey": 4587,
  "Ġobeyed": 4588,
  "Ġobject": 4589,
  "Ġobjects": 4590,
  "Ġobser": 4591,
  "Ġobserve": 4592,
  "Ġobserved": 4593,
  "Ġobserving": 4594,
  "Ġocc": 4595,
  "Ġoccas": 4596,
  "Ġoccasion": 4597,
  "Ġocean": 4598,
  "Ġoctopus": 4599,
  "Ġodd": 4600,
  "Ġof": 4601,
  "Ġoff": 4602,
  "Ġoffer": 4603,
  "Ġoffered": 4604,
  "Ġoffering": 4605,
  "Ġoffic": 4606,
  "Ġoffice": 4607,
  "Ġofficer": 4608,
  "Ġofficers": 4609,
  "Ġoften": 4610,
  "Ġoh": 4611,
  "Ġoil": 4612,
  "Ġok": 4613,
  "Ġokay": 4614,
  "Ġold": 4615,
  "Ġolder": 4616,
  "Ġoldest": 4617,
  "Ġolive": 4618,
  "Ġolives": 4619,
  "Ġon": 4620,
  "Ġonce": 4621,
  "Ġone": 4622,
  "Ġones": 4623,
  "Ġonion": 4624,
  "Ġonions": 4625,
  "Ġonly": 4626,
  "Ġonto": 4627,
  "Ġonward": 4628,
  "Ġonwards": 4629,
  "Ġop": 4630,
  "Ġopen": 4631,
  "Ġopened": 4632,
  "Ġopening": 4633,
  "Ġopens": 4634,
  "Ġopera": 4635,
  "Ġoperation": 4636,
  "Ġopin": 4637,
  "Ġopinion": 4638,
  "Ġopinions": 4639,
  "Ġopp": 4640,
  "Ġopport": 4641,
  "Ġopportunity": 4642,
  "Ġoppos": 4643,
  "Ġopposite": 4644,
  "Ġor": 4645,
  "Ġorange": 4646,
  "Ġoranges": 4647,
  "Ġord": 4648,
  "Ġorder": 4649,
  "Ġordered": 4650,
  "Ġorders": 4651,
  "Ġordinary": 4652,
  "Ġorgan": 4653,
  "Ġorganize": 4654,
  "Ġorganized": 4655,
  "Ġorganizing": 4656,
  "Ġoriginal": 4657,
  "Ġornament": 4658,
  "Ġornaments": 4659,
  "Ġostri": 4660,
  "Ġostrich": 4661,
  "Ġostriches": 4662,
  "Ġother": 4663,
  "Ġothers": 4664,
  "Ġotherwise": 4665,
  "Ġotter": 4666,
  "Ġotters": 4667,
  "Ġouch": 4668,
  "Ġour": 4669,
  "Ġours": 4670,
  "Ġourselves": 4671,
  "Ġout": 4672,
  "Ġoutdo": 4673,
  "Ġoutdoors": 4674,
  "Ġoutfit": 4675,
  "Ġoutfits": 4676,
  "Ġoutside": 4677,
  "Ġoven": 4678,
  "Ġover": 4679,
  "Ġovercome": 4680,
  "Ġoverjoyed": 4681,
  "Ġoverw": 4682,
  "Ġoverwhel": 4683,
  "Ġoverwhelmed": 4684,
  "Ġow": 4685,
  "Ġowl": 4686,
  "Ġowls": 4687,
  "Ġown": 4688,
  "Ġowned": 4689,
  "Ġowner": 4690,
  "Ġowners": 4691,
  "Ġowns": 4692,
  "Ġoxygen": 4693,
  "Ġoy": 4694,
  "Ġoyster": 4695,
  "Ġoysters": 4696,
  "Ġp": 4697,
  "Ġpa": 4698,
  "Ġpack": 4699,
  "Ġpackage": 4700,
  "Ġpackages": 4701,
  "Ġpacked": 4702,
  "Ġpacking": 4703,
  "Ġpad": 4704,
  "Ġpadd": 4705,
  "Ġpaddle": 4706,
  "Ġpaddled": 4707,
  "Ġpaddling": 4708,
  "Ġpage": 4709,
  "Ġpages": 4710,
  "Ġpaid": 4711,
  "Ġpain": 4712,
  "Ġpainful": 4713,
  "Ġpaint": 4714,
  "Ġpaintbrush": 4715,
  "Ġpainted": 4716,
  "Ġpainter": 4717,
  "Ġpainting": 4718,
  "Ġpaintings": 4719,
  "Ġpaints": 4720,
  "Ġpair": 4721,
  "Ġpajamas": 4722,
  "Ġpal": 4723,
  "Ġpalace": 4724,
  "Ġpale": 4725,
  "Ġpalm": 4726,
  "Ġpalms": 4727,
  "Ġpan": 4728,
  "Ġpancakes": 4729,
  "Ġpanda": 4730,
  "Ġpandas": 4731,
  "Ġpanic": 4732,
  "Ġpanicked": 4733,
  "Ġpans": 4734,
  "Ġpant": 4735,
  "Ġpants": 4736,
  "Ġpapa": 4737,
  "Ġpaper": 4738,
  "Ġpapers": 4739,
  "Ġpar": 4740,
  "Ġparade": 4741,
  "Ġparent": 4742,
  "Ġparents": 4743,
  "Ġpark": 4744,
  "Ġparked": 4745,
  "Ġparks": 4746,
  "Ġparrot": 4747,
  "Ġpart": 4748,
  "Ġparted": 4749,
  "Ġpartic": 4750,
  "Ġparticular": 4751,
  "Ġparticularly": 4752,
  "Ġparties": 4753,
  "Ġparts": 4754,
  "Ġparty": 4755,
  "Ġpass": 4756,
  "Ġpassed": 4757,
  "Ġpassen": 4758,
  "Ġpassenger": 4759,
  "Ġpassengers": 4760,
  "Ġpasses": 4761,
  "Ġpassing": 4762,
  "Ġpassport": 4763,
  "Ġpassports": 4764,
  "Ġpast": 4765,
  "Ġpasta": 4766,
  "Ġpastel": 4767,
  "Ġpastels": 4768,
  "Ġpastries": 4769,
  "Ġpastry": 4770,
  "Ġpat": 4771,
  "Ġpatch": 4772,
  "Ġpatches": 4773,
  "Ġpath": 4774,
  "Ġpaths": 4775,
  "Ġpatience": 4776,
  "Ġpatient": 4777,
  "Ġpatiently": 4778,
  "Ġpatients": 4779,
  "Ġpatted": 4780,
  "Ġpattern": 4781,
  "Ġpatterns": 4782,
  "Ġpause": 4783,
  "Ġpaused": 4784,
  "Ġpaw": 4785,
  "Ġpaws": 4786,
  "Ġpay": 4787,
  "Ġpaying": 4788,
  "Ġpays": 4789,
  "Ġpe": 4790,
  "Ġpeace": 4791,
  "Ġpeaceful": 4792,
  "Ġpeacefully": 4793,
  "Ġpeach": 4794,
  "Ġpeaches": 4795,
  "Ġpeacock": 4796,
  "Ġpeanut": 4797,
  "Ġpeanuts": 4798,
  "Ġpear": 4799,
  "Ġpearl": 4800,
  "Ġpearls": 4801,
  "Ġpears": 4802,
  "Ġpeas": 4803,
  "Ġpebb": 4804,
  "Ġpebble": 4805,
  "Ġpebbles": 4806,
  "Ġpec": 4807,
  "Ġpeck": 4808,
  "Ġpecked": 4809,
  "Ġpecks": 4810,
  "Ġped": 4811,
  "Ġpedal": 4812,
  "Ġpedaled": 4813,
  "Ġpedals": 4814,
  "Ġpee": 4815,
  "Ġpeek": 4816,
  "Ġpeeked": 4817,
  "Ġpeeking": 4818,
  "Ġpeeks": 4819,
  "Ġpeel": 4820,
  "Ġpeeled": 4821,
  "Ġpeep": 4822,
  "Ġpeeped": 4823,
  "Ġpeered": 4824,
  "Ġpen": 4825,
  "Ġpencil": 4826,
  "Ġpencils": 4827,
  "Ġpengu": 4828,
  "Ġpenguin": 4829,
  "Ġpenguins": 4830,
  "Ġpennies": 4831,
  "Ġpenny": 4832,
  "Ġpens": 4833,
  "Ġpeople": 4834,
  "Ġpepper": 4835,
  "Ġpepperoni": 4836,
  "Ġpeppers": 4837,
  "Ġper": 4838,
  "Ġperched": 4839,
  "Ġperf": 4840,
  "Ġperfect": 4841,
  "Ġperfectly": 4842,
  "Ġperform": 4843,
  "Ġperformance": 4844,
  "Ġperformed": 4845,
  "Ġperforming": 4846,
  "Ġperfume": 4847,
  "Ġperm": 4848,
  "Ġpermission": 4849,
  "Ġpermit": 4850,
  "Ġpermitted": 4851,
  "Ġpers": 4852,
  "Ġpersist": 4853,
  "Ġpersistence": 4854,
  "Ġpersistent": 4855,
  "Ġperson": 4856,
  "Ġpet": 4857,
  "Ġpetals": 4858,
  "Ġpets": 4859,
  "Ġpetted": 4860,
  "Ġpetting": 4861,
  "Ġph": 4862,
  "Ġphone": 4863,
  "Ġphones": 4864,
  "Ġphot": 4865,
  "Ġphoto": 4866,
  "Ġphotos": 4867,
  "Ġpian": 4868,
  "Ġpiano": 4869,
  "Ġpic": 4870,
  "Ġpick": 4871,
  "Ġpicked": 4872,
  "Ġpicking": 4873,
  "Ġpicks": 4874,
  "Ġpicnic": 4875,
  "Ġpicnics": 4876,
  "Ġpicture": 4877,
  "Ġpictures": 4878,
  "Ġpie": 4879,
  "Ġpiece": 4880,
  "Ġpieces": 4881,
  "Ġpies": 4882,
  "Ġpig": 4883,
  "Ġpige": 4884,
  "Ġpigeon": 4885,
  "Ġpigeons": 4886,
  "Ġpiggy": 4887,
  "Ġpigs": 4888,
  "Ġpile": 4889,
  "Ġpiles": 4890,
  "Ġpill": 4891,
  "Ġpillow": 4892,
  "Ġpillows": 4893,
  "Ġpills": 4894,
  "Ġpilot": 4895,
  "Ġpilots": 4896,
  "Ġpin": 4897,
  "Ġpinch": 4898,
  "Ġpinched": 4899,
  "Ġpinching": 4900,
  "Ġpine": 4901,
  "Ġpink": 4902,
  "Ġpins": 4903,
  "Ġpipe": 4904,
  "Ġpipes": 4905,
  "Ġpir": 4906,
  "Ġpirate": 4907,
  "Ġpirates": 4908,
  "Ġpistol": 4909,
  "Ġpit": 4910,
  "Ġpitch": 4911,
  "Ġpizz": 4912,
  "Ġpizza": 4913,
  "Ġpizzas": 4914,
  "Ġpl": 4915,
  "Ġplace": 4916,
  "Ġplaced": 4917,
  "Ġplaces": 4918,
  "Ġplain": 4919,
  "Ġplan": 4920,
  "Ġplane": 4921,
  "Ġplanes": 4922,
  "Ġplanet": 4923,
  "Ġplanets": 4924,
  "Ġplanned": 4925,
  "Ġplanning": 4926,
  "Ġplans": 4927,
  "Ġplant": 4928,
  "Ġplanted": 4929,
  "Ġplanting": 4930,
  "Ġplants": 4931,
  "Ġplastic": 4932,
  "Ġplate": 4933,
  "Ġplates": 4934,
  "Ġplay": 4935,
  "Ġplayd": 4936,
  "Ġplaydate": 4937,
  "Ġplayed": 4938,
  "Ġplayer": 4939,
  "Ġplayers": 4940,
  "Ġplayful": 4941,
  "Ġplayground": 4942,
  "Ġplayhouse": 4943,
  "Ġplaying": 4944,
  "Ġplayroom": 4945,
  "Ġplays": 4946,
  "Ġplaytime": 4947,
  "Ġple": 4948,
  "Ġpleaded": 4949,
  "Ġpleas": 4950,
  "Ġplease": 4951,
  "Ġpleased": 4952,
  "Ġpleasure": 4953,
  "Ġplenty": 4954,
  "Ġplot": 4955,
  "Ġplucked": 4956,
  "Ġplug": 4957,
  "Ġplugged": 4958,
  "Ġpo": 4959,
  "Ġpocket": 4960,
  "Ġpockets": 4961,
  "Ġpoem": 4962,
  "Ġpoems": 4963,
  "Ġpoin": 4964,
  "Ġpoint": 4965,
  "Ġpointed": 4966,
  "Ġpointing": 4967,
  "Ġpoints": 4968,
  "Ġpointy": 4969,
  "Ġpoison": 4970,
  "Ġpoke": 4971,
  "Ġpoked": 4972,
  "Ġpokes": 4973,
  "Ġpoking": 4974,
  "Ġpol": 4975,
  "Ġpolar": 4976,
  "Ġpole": 4977,
  "Ġpolice": 4978,
  "Ġpoliceman": 4979,
  "Ġpolish": 4980,
  "Ġpolished": 4981,
  "Ġpolishing": 4982,
  "Ġpolite": 4983,
  "Ġpolitely": 4984,
  "Ġpond": 4985,
  "Ġponies": 4986,
  "Ġpony": 4987,
  "Ġpool": 4988,
  "Ġpoop": 4989,
  "Ġpoor": 4990,
  "Ġpop": 4991,
  "Ġpopcorn": 4992,
  "Ġpopped": 4993,
  "Ġpoppies": 4994,
  "Ġpopping": 4995,
  "Ġpoppy": 4996,
  "Ġpops": 4997,
  "Ġpopsic": 4998,
  "Ġpopular": 4999,
  "Ġpor": 5000,
  "Ġporch": 5001,
  "Ġport": 5002,
  "Ġpose": 5003,
  "Ġposes": 5004,
  "Ġposit": 5005,
  "Ġpositive": 5006,
  "Ġposs": 5007,
  "Ġpossess": 5008,
  "Ġpossible": 5009,
  "Ġpost": 5010,
  "Ġposter": 5011,
  "Ġpostman": 5012,
  "Ġpot": 5013,
  "Ġpotato": 5014,
  "Ġpotatoes": 5015,
  "Ġpotion": 5016,
  "Ġpots": 5017,
  "Ġpouch": 5018,
  "Ġpounced": 5019,
  "Ġpound": 5020,
  "Ġpounds": 5021,
  "Ġpour": 5022,
  "Ġpoured": 5023,
  "Ġpouring": 5024,
  "Ġpours": 5025,
  "Ġpout": 5026,
  "Ġpouted": 5027,
  "Ġpow": 5028,
  "Ġpowder": 5029,
  "Ġpower": 5030,
  "Ġpowerful": 5031,
  "Ġpowers": 5032,
  "Ġpr": 5033,
  "Ġpra": 5034,
  "Ġpract": 5035,
  "Ġpractice": 5036,
  "Ġpracticed": 5037,
  "Ġpracticing": 5038,
  "Ġpraised": 5039,
  "Ġprank": 5040,
  "Ġpray": 5041,
  "Ġprayed": 5042,
  "Ġprayer": 5043,
  "Ġprayers": 5044,
  "Ġpraying": 5045,
  "Ġpre": 5046,
  "Ġprecious": 5047,
  "Ġprep": 5048,
  "Ġprepare": 5049,
  "Ġprepared": 5050,
  "Ġpreparing": 5051,
  "Ġpres": 5052,
  "Ġpresent": 5053,
  "Ġpresented": 5054,
  "Ġpresents": 5055,
  "Ġpress": 5056,
  "Ġpressed": 5057,
  "Ġpresses": 5058,
  "Ġpressing": 5059,
  "Ġpret": 5060,
  "Ġpretend": 5061,
  "Ġpretended": 5062,
  "Ġpretending": 5063,
  "Ġpretends": 5064,
  "Ġprett": 5065,
  "Ġprettier": 5066,
  "Ġprettiest": 5067,
  "Ġpretty": 5068,
  "Ġprevent": 5069,
  "Ġprevented": 5070,
  "Ġpri": 5071,
  "Ġprice": 5072,
  "Ġprick": 5073,
  "Ġprickly": 5074,
  "Ġpride": 5075,
  "Ġprin": 5076,
  "Ġprince": 5077,
  "Ġprincess": 5078,
  "Ġprincesses": 5079,
  "Ġprint": 5080,
  "Ġprinted": 5081,
  "Ġprinter": 5082,
  "Ġprinting": 5083,
  "Ġprints": 5084,
  "Ġpriv": 5085,
  "Ġprize": 5086,
  "Ġprizes": 5087,
  "Ġpro": 5088,
  "Ġprob": 5089,
  "Ġprobably": 5090,
  "Ġproblem": 5091,
  "Ġproblems": 5092,
  "Ġprod": 5093,
  "Ġprog": 5094,
  "Ġproject": 5095,
  "Ġprom": 5096,
  "Ġpromise": 5097,
  "Ġpromised": 5098,
  "Ġpromises": 5099,
  "Ġprop": 5100,
  "Ġproper": 5101,
  "Ġproperly": 5102,
  "Ġproperty": 5103,
  "Ġprot": 5104,
  "Ġprotect": 5105,
  "Ġprotected": 5106,
  "Ġprotecting": 5107,
  "Ġprotection": 5108,
  "Ġproud": 5109,
  "Ġproudly": 5110,
  "Ġprov": 5111,
  "Ġprove": 5112,
  "Ġprovide": 5113,
  "Ġprovided": 5114,
  "Ġproviding": 5115,
  "Ġprun": 5116,
  "Ġprune": 5117,
  "Ġprunes": 5118,
  "Ġpu": 5119,
  "Ġpuck": 5120,
  "Ġpudd": 5121,
  "Ġpuddle": 5122,
  "Ġpuddles": 5123,
  "Ġpuff": 5124,
  "Ġpull": 5125,
  "Ġpulled": 5126,
  "Ġpulling": 5127,
  "Ġpulls": 5128,
  "Ġpump": 5129,
  "Ġpumpkin": 5130,
  "Ġpumpkins": 5131,
  "Ġpun": 5132,
  "Ġpunish": 5133,
  "Ġpunished": 5134,
  "Ġpunishment": 5135,
  "Ġpup": 5136,
  "Ġpupil": 5137,
  "Ġpupils": 5138,
  "Ġpupp": 5139,
  "Ġpuppet": 5140,
  "Ġpuppets": 5141,
  "Ġpuppies": 5142,
  "Ġpuppy": 5143,
  "Ġpur": 5144,
  "Ġpurp": 5145,
  "Ġpurple": 5146,
  "Ġpurpose": 5147,
  "Ġpurr": 5148,
  "Ġpurred": 5149,
  "Ġpurrs": 5150,
  "Ġpurse": 5151,
  "Ġpus": 5152,
  "Ġpush": 5153,
  "Ġpushed": 5154,
  "Ġpushes": 5155,
  "Ġpushing": 5156,
  "Ġput": 5157,
  "Ġputs": 5158,
  "Ġputting": 5159,
  "Ġpuzz": 5160,
  "Ġpuzzle": 5161,
  "Ġpuzzled": 5162,
  "Ġpuzzles": 5163,
  "Ġqu": 5164,
  "Ġquack": 5165,
  "Ġquacked": 5166,
  "Ġquacking": 5167,
  "Ġquacks": 5168,
  "Ġquar": 5169,
  "Ġquarrel": 5170,
  "Ġquarreled": 5171,
  "Ġquarreling": 5172,
  "Ġque": 5173,
  "Ġqueen": 5174,
  "Ġqueens": 5175,
  "Ġquest": 5176,
  "Ġquestion": 5177,
  "Ġquestioned": 5178,
  "Ġquestions": 5179,
  "Ġquick": 5180,
  "Ġquickly": 5181,
  "Ġquiet": 5182,
  "Ġquieter": 5183,
  "Ġquietly": 5184,
  "Ġquilt": 5185,
  "Ġquit": 5186,
  "Ġquite": 5187,
  "Ġquiz": 5188,
  "Ġquizzes": 5189,
  "Ġr": 5190,
  "Ġra": 5191,
  "Ġrabbit": 5192,
  "Ġrabbits": 5193,
  "Ġrac": 5194,
  "Ġraccoon": 5195,
  "Ġrace": 5196,
  "Ġraced": 5197,
  "Ġracer": 5198,
  "Ġracers": 5199,
  "Ġraces": 5200,
  "Ġracing": 5201,
  "Ġrack": 5202,
  "Ġrad": 5203,
  "Ġradio": 5204,
  "Ġradish": 5205,
  "Ġradishes": 5206,
  "Ġraft": 5207,
  "Ġrag": 5208,
  "Ġrags": 5209,
  "Ġrail": 5210,
  "Ġrails": 5211,
  "Ġrain": 5212,
  "Ġrainbow": 5213,
  "Ġrainbows": 5214,
  "Ġrainco": 5215,
  "Ġraincoat": 5216,
  "Ġraindr": 5217,
  "Ġraindrops": 5218,
  "Ġrained": 5219,
  "Ġraining": 5220,
  "Ġrains": 5221,
  "Ġrainy": 5222,
  "Ġraise": 5223,
  "Ġraised": 5224,
  "Ġraising": 5225,
  "Ġrake": 5226,
  "Ġraked": 5227,
  "Ġraking": 5228,
  "Ġramp": 5229,
  "Ġran": 5230,
  "Ġranch": 5231,
  "Ġrang": 5232,
  "Ġranger": 5233,
  "Ġrare": 5234,
  "Ġrat": 5235,
  "Ġrather": 5236,
  "Ġrats": 5237,
  "Ġraven": 5238,
  "Ġrays": 5239,
  "Ġrazor": 5240,
  "Ġre": 5241,
  "Ġreach": 5242,
  "Ġreached": 5243,
  "Ġreaches": 5244,
  "Ġreaching": 5245,
  "Ġread": 5246,
  "Ġreading": 5247,
  "Ġreads": 5248,
  "Ġready": 5249,
  "Ġreal": 5250,
  "Ġrealise": 5251,
  "Ġrealised": 5252,
  "Ġrealize": 5253,
  "Ġrealized": 5254,
  "Ġrealizes": 5255,
  "Ġrealizing": 5256,
  "Ġreally": 5257,
  "Ġreapp": 5258,
  "Ġreappeared": 5259,
  "Ġreason": 5260,
  "Ġreass": 5261,
  "Ġreassured": 5262,
  "Ġrebu": 5263,
  "Ġrebuild": 5264,
  "Ġrec": 5265,
  "Ġrece": 5266,
  "Ġreceive": 5267,
  "Ġreceived": 5268,
  "Ġrecipe": 5269,
  "Ġrecogn": 5270,
  "Ġrecognize": 5271,
  "Ġrecognized": 5272,
  "Ġrecommend": 5273,
  "Ġrecommended": 5274,
  "Ġrecord": 5275,
  "Ġrecorded": 5276,
  "Ġrecorder": 5277,
  "Ġrecording": 5278,
  "Ġred": 5279,
  "Ġreef": 5280,
  "Ġref": 5281,
  "Ġrefle": 5282,
  "Ġreflection": 5283,
  "Ġrefres": 5284,
  "Ġrefreshed": 5285,
  "Ġrefreshing": 5286,
  "Ġrefrigerator": 5287,
  "Ġrefuse": 5288,
  "Ġrefused": 5289,
  "Ġreg": 5290,
  "Ġregret": 5291,
  "Ġregretted": 5292,
  "Ġregular": 5293,
  "Ġreind": 5294,
  "Ġreindeer": 5295,
  "Ġrel": 5296,
  "Ġrelax": 5297,
  "Ġrelaxed": 5298,
  "Ġrelaxing": 5299,
  "Ġrele": 5300,
  "Ġrelease": 5301,
  "Ġreleased": 5302,
  "Ġreliable": 5303,
  "Ġrelie": 5304,
  "Ġrelief": 5305,
  "Ġrelieved": 5306,
  "Ġreluctantly": 5307,
  "Ġrely": 5308,
  "Ġrem": 5309,
  "Ġremain": 5310,
  "Ġremained": 5311,
  "Ġremem": 5312,
  "Ġremember": 5313,
  "Ġremembered": 5314,
  "Ġremembering": 5315,
  "Ġremembers": 5316,
  "Ġremind": 5317,
  "Ġreminded": 5318,
  "Ġreminder": 5319,
  "Ġreminding": 5320,
  "Ġreminds": 5321,
  "Ġremote": 5322,
  "Ġremove": 5323,
  "Ġremoved": 5324,
  "Ġrep": 5325,
  "Ġrepa": 5326,
  "Ġrepair": 5327,
  "Ġrepaired": 5328,
  "Ġrepairing": 5329,
  "Ġrepe": 5330,
  "Ġrepeat": 5331,
  "Ġrepeated": 5332,
  "Ġrepeating": 5333,
  "Ġrepeats": 5334,
  "Ġrepl": 5335,
  "Ġreplace": 5336,
  "Ġreplaced": 5337,
  "Ġreplied": 5338,
  "Ġreply": 5339,
  "Ġrequest": 5340,
  "Ġrequested": 5341,
  "Ġres": 5342,
  "Ġresc": 5343,
  "Ġrescue": 5344,
  "Ġrescued": 5345,
  "Ġrescuing": 5346,
  "Ġresist": 5347,
  "Ġresisted": 5348,
  "Ġresp": 5349,
  "Ġrespect": 5350,
  "Ġrespected": 5351,
  "Ġrespectful": 5352,
  "Ġrespon": 5353,
  "Ġrespond": 5354,
  "Ġresponded": 5355,
  "Ġrespons": 5356,
  "Ġresponse": 5357,
  "Ġresponsib": 5358,
  "Ġresponsibility": 5359,
  "Ġresponsible": 5360,
  "Ġrest": 5361,
  "Ġrestaurant": 5362,
  "Ġrested": 5363,
  "Ġresting": 5364,
  "Ġrestless": 5365,
  "Ġrestore": 5366,
  "Ġrestored": 5367,
  "Ġresult": 5368,
  "Ġresults": 5369,
  "Ġret": 5370,
  "Ġreturn": 5371,
  "Ġreturned": 5372,
  "Ġreturning": 5373,
  "Ġreun": 5374,
  "Ġreunited": 5375,
  "Ġreveal": 5376,
  "Ġrevealed": 5377,
  "Ġrevealing": 5378,
  "Ġrever": 5379,
  "Ġreverse": 5380,
  "Ġreversed": 5381,
  "Ġreversing": 5382,
  "Ġreward": 5383,
  "Ġrewarded": 5384,
  "Ġrewarding": 5385,
  "Ġrewards": 5386,
  "Ġrh": 5387,
  "Ġrhin": 5388,
  "Ġrhino": 5389,
  "Ġrhinoceros": 5390,
  "Ġrhythm": 5391,
  "Ġri": 5392,
  "Ġribb": 5393,
  "Ġribbit": 5394,
  "Ġribbon": 5395,
  "Ġribbons": 5396,
  "Ġrice": 5397,
  "Ġrich": 5398,
  "Ġrid": 5399,
  "Ġride": 5400,
  "Ġrider": 5401,
  "Ġrides": 5402,
  "Ġriding": 5403,
  "Ġright": 5404,
  "Ġrin": 5405,
  "Ġring": 5406,
  "Ġringing": 5407,
  "Ġrings": 5408,
  "Ġrins": 5409,
  "Ġrinse": 5410,
  "Ġrinsed": 5411,
  "Ġrip": 5412,
  "Ġripe": 5413,
  "Ġripp": 5414,
  "Ġripped": 5415,
  "Ġrips": 5416,
  "Ġrise": 5417,
  "Ġrising": 5418,
  "Ġrisk": 5419,
  "Ġrisks": 5420,
  "Ġriver": 5421,
  "Ġriverbank": 5422,
  "Ġrivers": 5423,
  "Ġro": 5424,
  "Ġroad": 5425,
  "Ġroads": 5426,
  "Ġroar": 5427,
  "Ġroared": 5428,
  "Ġroaring": 5429,
  "Ġroars": 5430,
  "Ġrob": 5431,
  "Ġrobber": 5432,
  "Ġrobbers": 5433,
  "Ġrobe": 5434,
  "Ġrobin": 5435,
  "Ġrobot": 5436,
  "Ġrobots": 5437,
  "Ġrock": 5438,
  "Ġrocked": 5439,
  "Ġrocket": 5440,
  "Ġrockets": 5441,
  "Ġrocking": 5442,
  "Ġrocks": 5443,
  "Ġrod": 5444,
  "Ġrode": 5445,
  "Ġrods": 5446,
  "Ġroll": 5447,
  "Ġrolled": 5448,
  "Ġrolling": 5449,
  "Ġrolls": 5450,
  "Ġroof": 5451,
  "Ġroom": 5452,
  "Ġrooms": 5453,
  "Ġroot": 5454,
  "Ġroots": 5455,
  "Ġrope": 5456,
  "Ġropes": 5457,
  "Ġrose": 5458,
  "Ġroses": 5459,
  "Ġrot": 5460,
  "Ġrotten": 5461,
  "Ġrotting": 5462,
  "Ġrough": 5463,
  "Ġround": 5464,
  "Ġrout": 5465,
  "Ġroutine": 5466,
  "Ġrow": 5467,
  "Ġrowed": 5468,
  "Ġrows": 5469,
  "Ġru": 5470,
  "Ġrub": 5471,
  "Ġrubb": 5472,
  "Ġrubbed": 5473,
  "Ġrubber": 5474,
  "Ġrubbing": 5475,
  "Ġrubbish": 5476,
  "Ġrubs": 5477,
  "Ġrude": 5478,
  "Ġruff": 5479,
  "Ġrug": 5480,
  "Ġruin": 5481,
  "Ġruined": 5482,
  "Ġruining": 5483,
  "Ġrul": 5484,
  "Ġrule": 5485,
  "Ġruler": 5486,
  "Ġrules": 5487,
  "Ġrumble": 5488,
  "Ġrumbling": 5489,
  "Ġrun": 5490,
  "Ġrunner": 5491,
  "Ġrunning": 5492,
  "Ġruns": 5493,
  "Ġrush": 5494,
  "Ġrushed": 5495,
  "Ġrushing": 5496,
  "Ġrust": 5497,
  "Ġrustling": 5498,
  "Ġrusty": 5499,
  "Ġs": 5500,
  "Ġsa": 5501,
  "Ġsack": 5502,
  "Ġsacks": 5503,
  "Ġsad": 5504,
  "Ġsadder": 5505,
  "Ġsadly": 5506,
  "Ġsadness": 5507,
  "Ġsaf": 5508,
  "Ġsafari": 5509,
  "Ġsafe": 5510,
  "Ġsafely": 5511,
  "Ġsafer": 5512,
  "Ġsafety": 5513,
  "Ġsaid": 5514,
  "Ġsail": 5515,
  "Ġsailboat": 5516,
  "Ġsailed": 5517,
  "Ġsailing": 5518,
  "Ġsailor": 5519,
  "Ġsailors": 5520,
  "Ġsails": 5521,
  "Ġsal": 5522,
  "Ġsalad": 5523,
  "Ġsale": 5524,
  "Ġsalon": 5525,
  "Ġsalt": 5526,
  "Ġsalty": 5527,
  "Ġsame": 5528,
  "Ġsan": 5529,
  "Ġsand": 5530,
  "Ġsandbox": 5531,
  "Ġsandcast": 5532,
  "Ġsandcastle": 5533,
  "Ġsandcastles": 5534,
  "Ġsandpit": 5535,
  "Ġsandw": 5536,
  "Ġsandwich": 5537,
  "Ġsandwiches": 5538,
  "Ġsandy": 5539,
  "Ġsang": 5540,
  "Ġsank": 5541,
  "Ġsat": 5542,
  "Ġsatis": 5543,
  "Ġsatisfa": 5544,
  "Ġsatisfaction": 5545,
  "Ġsatisfied": 5546,
  "Ġsauce": 5547,
  "Ġsaus": 5548,
  "Ġsausage": 5549,
  "Ġsausages": 5550,
  "Ġsav": 5551,
  "Ġsave": 5552,
  "Ġsaved": 5553,
  "Ġsaving": 5554,
  "Ġsaw": 5555,
  "Ġsay": 5556,
  "Ġsaying": 5557,
  "Ġsays": 5558,
  "Ġsc": 5559,
  "Ġscale": 5560,
  "Ġscales": 5561,
  "Ġscamp": 5562,
  "Ġscampered": 5563,
  "Ġscar": 5564,
  "Ġscare": 5565,
  "Ġscarecrow": 5566,
  "Ġscared": 5567,
  "Ġscares": 5568,
  "Ġscarf": 5569,
  "Ġscaring": 5570,
  "Ġscarves": 5571,
  "Ġscary": 5572,
  "Ġscatter": 5573,
  "Ġscattered": 5574,
  "Ġscattering": 5575,
  "Ġscen": 5576,
  "Ġscene": 5577,
  "Ġscent": 5578,
  "Ġschool": 5579,
  "Ġscient": 5580,
  "Ġscientist": 5581,
  "Ġscissors": 5582,
  "Ġsco": 5583,
  "Ġscold": 5584,
  "Ġscolded": 5585,
  "Ġscolds": 5586,
  "Ġscoop": 5587,
  "Ġscooped": 5588,
  "Ġscoops": 5589,
  "Ġscoot": 5590,
  "Ġscooter": 5591,
  "Ġscooters": 5592,
  "Ġscore": 5593,
  "Ġscored": 5594,
  "Ġscores": 5595,
  "Ġscowl": 5596,
  "Ġscr": 5597,
  "Ġscra": 5598,
  "Ġscram": 5599,
  "Ġscrambled": 5600,
  "Ġscraped": 5601,
  "Ġscrat": 5602,
  "Ġscratch": 5603,
  "Ġscratched": 5604,
  "Ġscratches": 5605,
  "Ġscratching": 5606,
  "Ġscream": 5607,
  "Ġscreamed": 5608,
  "Ġscreaming": 5609,
  "Ġscreams": 5610,
  "Ġscreen": 5611,
  "Ġscrew": 5612,
  "Ġscrewd": 5613,
  "Ġscrewdriver": 5614,
  "Ġscrews": 5615,
  "Ġscri": 5616,
  "Ġscru": 5617,
  "Ġscrub": 5618,
  "Ġscrubbed": 5619,
  "Ġsculpture": 5620,
  "Ġscur": 5621,
  "Ġscurried": 5622,
  "Ġscurry": 5623,
  "Ġscurrying": 5624,
  "Ġse": 5625,
  "Ġsea": 5626,
  "Ġseagull": 5627,
  "Ġseagulls": 5628,
  "Ġseal": 5629,
  "Ġseals": 5630,
  "Ġsear": 5631,
  "Ġsearch": 5632,
  "Ġsearched": 5633,
  "Ġsearching": 5634,
  "Ġseas": 5635,
  "Ġseashe": 5636,
  "Ġseason": 5637,
  "Ġseasons": 5638,
  "Ġseat": 5639,
  "Ġseats": 5640,
  "Ġseaweed": 5641,
  "Ġsec": 5642,
  "Ġsecond": 5643,
  "Ġseconds": 5644,
  "Ġsecret": 5645,
  "Ġsecrets": 5646,
  "Ġsecure": 5647,
  "Ġsecurity": 5648,
  "Ġsee": 5649,
  "Ġseed": 5650,
  "Ġseeds": 5651,
  "Ġseeing": 5652,
  "Ġseek": 5653,
  "Ġseeker": 5654,
  "Ġseeking": 5655,
  "Ġseem": 5656,
  "Ġseemed": 5657,
  "Ġseems": 5658,
  "Ġseen": 5659,
  "Ġsees": 5660,
  "Ġseesaw": 5661,
  "Ġsel": 5662,
  "Ġself": 5663,
  "Ġselfish": 5664,
  "Ġsell": 5665,
  "Ġseller": 5666,
  "Ġselling": 5667,
  "Ġsells": 5668,
  "Ġsend": 5669,
  "Ġsending": 5670,
  "Ġsends": 5671,
  "Ġsens": 5672,
  "Ġsensation": 5673,
  "Ġsense": 5674,
  "Ġsent": 5675,
  "Ġsepar": 5676,
  "Ġseparate": 5677,
  "Ġseparated": 5678,
  "Ġseparating": 5679,
  "Ġser": 5680,
  "Ġserious": 5681,
  "Ġseriously": 5682,
  "Ġservant": 5683,
  "Ġserve": 5684,
  "Ġserved": 5685,
  "Ġserving": 5686,
  "Ġset": 5687,
  "Ġsets": 5688,
  "Ġsett": 5689,
  "Ġsetting": 5690,
  "Ġsettle": 5691,
  "Ġsettled": 5692,
  "Ġseven": 5693,
  "Ġsever": 5694,
  "Ġseveral": 5695,
  "Ġsew": 5696,
  "Ġsewed": 5697,
  "Ġsewing": 5698,
  "Ġsh": 5699,
  "Ġshade": 5700,
  "Ġshadow": 5701,
  "Ġshadows": 5702,
  "Ġshady": 5703,
  "Ġshake": 5704,
  "Ġshakes": 5705,
  "Ġshaking": 5706,
  "Ġshall": 5707,
  "Ġshallow": 5708,
  "Ġshampoo": 5709,
  "Ġshap": 5710,
  "Ġshape": 5711,
  "Ġshaped": 5712,
  "Ġshapes": 5713,
  "Ġshare": 5714,
  "Ġshared": 5715,
  "Ġshares": 5716,
  "Ġsharing": 5717,
  "Ġshark": 5718,
  "Ġsharks": 5719,
  "Ġsharp": 5720,
  "Ġshattered": 5721,
  "Ġshave": 5722,
  "Ġshe": 5723,
  "Ġshed": 5724,
  "Ġsheep": 5725,
  "Ġsheet": 5726,
  "Ġsheets": 5727,
  "Ġshelf": 5728,
  "Ġshell": 5729,
  "Ġshells": 5730,
  "Ġshelter": 5731,
  "Ġshelves": 5732,
  "Ġshh": 5733,
  "Ġshield": 5734,
  "Ġshimmering": 5735,
  "Ġshin": 5736,
  "Ġshine": 5737,
  "Ġshined": 5738,
  "Ġshines": 5739,
  "Ġshinier": 5740,
  "Ġshining": 5741,
  "Ġshiny": 5742,
  "Ġship": 5743,
  "Ġships": 5744,
  "Ġshirt": 5745,
  "Ġshirts": 5746,
  "Ġshiver": 5747,
  "Ġshivered": 5748,
  "Ġshivering": 5749,
  "Ġsho": 5750,
  "Ġshock": 5751,
  "Ġshocked": 5752,
  "Ġshoe": 5753,
  "Ġshoes": 5754,
  "Ġshone": 5755,
  "Ġshoo": 5756,
  "Ġshooed": 5757,
  "Ġshook": 5758,
  "Ġshoot": 5759,
  "Ġshooting": 5760,
  "Ġshoots": 5761,
  "Ġshop": 5762,
  "Ġshopkeeper": 5763,
  "Ġshopping": 5764,
  "Ġshops": 5765,
  "Ġshore": 5766,
  "Ġshort": 5767,
  "Ġshortcut": 5768,
  "Ġshorter": 5769,
  "Ġshorts": 5770,
  "Ġshot": 5771,
  "Ġshould": 5772,
  "Ġshoulder": 5773,
  "Ġshoulders": 5774,
  "Ġshouldn": 5775,
  "Ġshout": 5776,
  "Ġshouted": 5777,
  "Ġshouting": 5778,
  "Ġshouts": 5779,
  "Ġshovel": 5780,
  "Ġshovels": 5781,
  "Ġshow": 5782,
  "Ġshowed": 5783,
  "Ġshower": 5784,
  "Ġshowing": 5785,
  "Ġshown": 5786,
  "Ġshows": 5787,
  "Ġshr": 5788,
  "Ġshrank": 5789,
  "Ġshrimp": 5790,
  "Ġshrink": 5791,
  "Ġshrinking": 5792,
  "Ġshrug": 5793,
  "Ġshrugged": 5794,
  "Ġshrugs": 5795,
  "Ġshrunk": 5796,
  "Ġshut": 5797,
  "Ġshy": 5798,
  "Ġshyly": 5799,
  "Ġsi": 5800,
  "Ġsiblings": 5801,
  "Ġsick": 5802,
  "Ġside": 5803,
  "Ġsides": 5804,
  "Ġsidewalk": 5805,
  "Ġsigh": 5806,
  "Ġsighed": 5807,
  "Ġsighs": 5808,
  "Ġsight": 5809,
  "Ġsights": 5810,
  "Ġsign": 5811,
  "Ġsigned": 5812,
  "Ġsigning": 5813,
  "Ġsigns": 5814,
  "Ġsil": 5815,
  "Ġsilence": 5816,
  "Ġsilent": 5817,
  "Ġsill": 5818,
  "Ġsilly": 5819,
  "Ġsilver": 5820,
  "Ġsimp": 5821,
  "Ġsimple": 5822,
  "Ġsimply": 5823,
  "Ġsince": 5824,
  "Ġsincere": 5825,
  "Ġsing": 5826,
  "Ġsinger": 5827,
  "Ġsingers": 5828,
  "Ġsinging": 5829,
  "Ġsingle": 5830,
  "Ġsings": 5831,
  "Ġsink": 5832,
  "Ġsip": 5833,
  "Ġsipped": 5834,
  "Ġsir": 5835,
  "Ġsiren": 5836,
  "Ġsirens": 5837,
  "Ġsister": 5838,
  "Ġsisters": 5839,
  "Ġsit": 5840,
  "Ġsits": 5841,
  "Ġsitting": 5842,
  "Ġsitu": 5843,
  "Ġsituation": 5844,
  "Ġsituations": 5845,
  "Ġsix": 5846,
  "Ġsize": 5847,
  "Ġsizes": 5848,
  "Ġsk": 5849,
  "Ġskeleton": 5850,
  "Ġskies": 5851,
  "Ġskill": 5852,
  "Ġskills": 5853,
  "Ġskin": 5854,
  "Ġskip": 5855,
  "Ġskipped": 5856,
  "Ġskipping": 5857,
  "Ġskirt": 5858,
  "Ġskirts": 5859,
  "Ġskull": 5860,
  "Ġskunk": 5861,
  "Ġsky": 5862,
  "Ġsl": 5863,
  "Ġslam": 5864,
  "Ġslammed": 5865,
  "Ġslap": 5866,
  "Ġslapped": 5867,
  "Ġslapping": 5868,
  "Ġsle": 5869,
  "Ġsled": 5870,
  "Ġsleds": 5871,
  "Ġsleep": 5872,
  "Ġsleeping": 5873,
  "Ġsleeps": 5874,
  "Ġsleepy": 5875,
  "Ġslept": 5876,
  "Ġslice": 5877,
  "Ġslices": 5878,
  "Ġslid": 5879,
  "Ġslide": 5880,
  "Ġslides": 5881,
  "Ġsliding": 5882,
  "Ġslim": 5883,
  "Ġslimy": 5884,
  "Ġslip": 5885,
  "Ġslipp": 5886,
  "Ġslipped": 5887,
  "Ġslippery": 5888,
  "Ġslipping": 5889,
  "Ġslips": 5890,
  "Ġslither": 5891,
  "Ġslithered": 5892,
  "Ġslow": 5893,
  "Ġslowed": 5894,
  "Ġslower": 5895,
  "Ġslowly": 5896,
  "Ġsm": 5897,
  "Ġsmall": 5898,
  "Ġsmaller": 5899,
  "Ġsmallest": 5900,
  "Ġsmart": 5901,
  "Ġsmarter": 5902,
  "Ġsmartest": 5903,
  "Ġsmashed": 5904,
  "Ġsmell": 5905,
  "Ġsmelled": 5906,
  "Ġsmelling": 5907,
  "Ġsmells": 5908,
  "Ġsmelly": 5909,
  "Ġsmelt": 5910,
  "Ġsmile": 5911,
  "Ġsmiled": 5912,
  "Ġsmiles": 5913,
  "Ġsmiley": 5914,
  "Ġsmiling": 5915,
  "Ġsmo": 5916,
  "Ġsmoke": 5917,
  "Ġsmooth": 5918,
  "Ġsn": 5919,
  "Ġsnack": 5920,
  "Ġsnacks": 5921,
  "Ġsnail": 5922,
  "Ġsnake": 5923,
  "Ġsnakes": 5924,
  "Ġsnap": 5925,
  "Ġsnapped": 5926,
  "Ġsnapping": 5927,
  "Ġsnaps": 5928,
  "Ġsnar": 5929,
  "Ġsnat": 5930,
  "Ġsnatched": 5931,
  "Ġsne": 5932,
  "Ġsneak": 5933,
  "Ġsneaked": 5934,
  "Ġsneaks": 5935,
  "Ġsneaky": 5936,
  "Ġsnee": 5937,
  "Ġsneeze": 5938,
  "Ġsneezed": 5939,
  "Ġsneezes": 5940,
  "Ġsneezing": 5941,
  "Ġsniff": 5942,
  "Ġsniffed": 5943,
  "Ġsniffing": 5944,
  "Ġsniffled": 5945,
  "Ġsniffs": 5946,
  "Ġsnip": 5947,
  "Ġsnort": 5948,
  "Ġsnorted": 5949,
  "Ġsnow": 5950,
  "Ġsnowball": 5951,
  "Ġsnowballs": 5952,
  "Ġsnowfl": 5953,
  "Ġsnowflake": 5954,
  "Ġsnowflakes": 5955,
  "Ġsnowman": 5956,
  "Ġsnowmen": 5957,
  "Ġsnowy": 5958,
  "Ġsnuck": 5959,
  "Ġsnug": 5960,
  "Ġsnugg": 5961,
  "Ġsnuggle": 5962,
  "Ġsnuggled": 5963,
  "Ġso": 5964,
  "Ġsoak": 5965,
  "Ġsoaked": 5966,
  "Ġsoaking": 5967,
  "Ġsoap": 5968,
  "Ġsoapy": 5969,
  "Ġsoar": 5970,
  "Ġsoared": 5971,
  "Ġsoaring": 5972,
  "Ġsobbed": 5973,
  "Ġsobbing": 5974,
  "Ġsoccer": 5975,
  "Ġsock": 5976,
  "Ġsocks": 5977,
  "Ġsoda": 5978,
  "Ġsofa": 5979,
  "Ġsoft": 5980,
  "Ġsoftened": 5981,
  "Ġsofter": 5982,
  "Ġsoftly": 5983,
  "Ġsoil": 5984,
  "Ġsol": 5985,
  "Ġsold": 5986,
  "Ġsoldier": 5987,
  "Ġsoldiers": 5988,
  "Ġsolut": 5989,
  "Ġsolution": 5990,
  "Ġsolve": 5991,
  "Ġsolved": 5992,
  "Ġsolving": 5993,
  "Ġsome": 5994,
  "Ġsomebody": 5995,
  "Ġsomeday": 5996,
  "Ġsomeone": 5997,
  "Ġsomet": 5998,
  "Ġsomething": 5999,
  "Ġsometime": 6000,
  "Ġsometimes": 6001,
  "Ġsomewhere": 6002,
  "Ġson": 6003,
  "Ġsong": 6004,
  "Ġsongs": 6005,
  "Ġsoon": 6006,
  "Ġsooner": 6007,
  "Ġsoot": 6008,
  "Ġsor": 6009,
  "Ġsore": 6010,
  "Ġsorry": 6011,
  "Ġsort": 6012,
  "Ġsorted": 6013,
  "Ġsorting": 6014,
  "Ġsorts": 6015,
  "Ġsou": 6016,
  "Ġsound": 6017,
  "Ġsounded": 6018,
  "Ġsounds": 6019,
  "Ġsoup": 6020,
  "Ġsour": 6021,
  "Ġsource": 6022,
  "Ġsouvenir": 6023,
  "Ġsp": 6024,
  "Ġspace": 6025,
  "Ġspaces": 6026,
  "Ġspaceship": 6027,
  "Ġspade": 6028,
  "Ġspaghetti": 6029,
  "Ġspark": 6030,
  "Ġsparkle": 6031,
  "Ġsparkled": 6032,
  "Ġsparkles": 6033,
  "Ġsparkling": 6034,
  "Ġsparkly": 6035,
  "Ġsparks": 6036,
  "Ġspat": 6037,
  "Ġspe": 6038,
  "Ġspeak": 6039,
  "Ġspeaker": 6040,
  "Ġspeaking": 6041,
  "Ġspeaks": 6042,
  "Ġspear": 6043,
  "Ġspears": 6044,
  "Ġspec": 6045,
  "Ġspecial": 6046,
  "Ġsped": 6047,
  "Ġspeed": 6048,
  "Ġspeeding": 6049,
  "Ġspell": 6050,
  "Ġspells": 6051,
  "Ġspend": 6052,
  "Ġspending": 6053,
  "Ġspent": 6054,
  "Ġspice": 6055,
  "Ġspices": 6056,
  "Ġspicy": 6057,
  "Ġspid": 6058,
  "Ġspider": 6059,
  "Ġspiders": 6060,
  "Ġspies": 6061,
  "Ġspike": 6062,
  "Ġspikes": 6063,
  "Ġspiky": 6064,
  "Ġspill": 6065,
  "Ġspilled": 6066,
  "Ġspilling": 6067,
  "Ġspills": 6068,
  "Ġspin": 6069,
  "Ġspinning": 6070,
  "Ġspins": 6071,
  "Ġspirit": 6072,
  "Ġspit": 6073,
  "Ġspits": 6074,
  "Ġspl": 6075,
  "Ġsplas": 6076,
  "Ġsplash": 6077,
  "Ġsplashed": 6078,
  "Ġsplashes": 6079,
  "Ġsplashing": 6080,
  "Ġsplit": 6081,
  "Ġspo": 6082,
  "Ġspoil": 6083,
  "Ġspoiled": 6084,
  "Ġspoiling": 6085,
  "Ġspoke": 6086,
  "Ġspong": 6087,
  "Ġsponge": 6088,
  "Ġspooky": 6089,
  "Ġspoon": 6090,
  "Ġspoonful": 6091,
  "Ġspoons": 6092,
  "Ġsport": 6093,
  "Ġsports": 6094,
  "Ġspot": 6095,
  "Ġspots": 6096,
  "Ġspotted": 6097,
  "Ġspr": 6098,
  "Ġsprang": 6099,
  "Ġspray": 6100,
  "Ġsprayed": 6101,
  "Ġspraying": 6102,
  "Ġsprays": 6103,
  "Ġspread": 6104,
  "Ġspreading": 6105,
  "Ġspring": 6106,
  "Ġspringing": 6107,
  "Ġsprink": 6108,
  "Ġsprinkle": 6109,
  "Ġsprinkled": 6110,
  "Ġsprinkles": 6111,
  "Ġsprout": 6112,
  "Ġspun": 6113,
  "Ġspy": 6114,
  "Ġsqu": 6115,
  "Ġsquare": 6116,
  "Ġsquares": 6117,
  "Ġsquash": 6118,
  "Ġsquashes": 6119,
  "Ġsquaw": 6120,
  "Ġsque": 6121,
  "Ġsqueak": 6122,
  "Ġsqueaked": 6123,
  "Ġsqueaky": 6124,
  "Ġsqueal": 6125,
  "Ġsquealed": 6126,
  "Ġsquee": 6127,
  "Ġsqueeze": 6128,
  "Ġsqueezed": 6129,
  "Ġsqueezes": 6130,
  "Ġsqueezing": 6131,
  "Ġsquinted": 6132,
  "Ġsquir": 6133,
  "Ġsquirrel": 6134,
  "Ġsquirrels": 6135,
  "Ġsquirted": 6136,
  "Ġsquish": 6137,
  "Ġsquished": 6138,
  "Ġsquishy": 6139,
  "Ġst": 6140,
  "Ġstable": 6141,
  "Ġstack": 6142,
  "Ġstacked": 6143,
  "Ġstacking": 6144,
  "Ġstacks": 6145,
  "Ġstadium": 6146,
  "Ġstaff": 6147,
  "Ġstage": 6148,
  "Ġstain": 6149,
  "Ġstains": 6150,
  "Ġstair": 6151,
  "Ġstairs": 6152,
  "Ġstall": 6153,
  "Ġstamp": 6154,
  "Ġstamped": 6155,
  "Ġstamps": 6156,
  "Ġstand": 6157,
  "Ġstanding": 6158,
  "Ġstands": 6159,
  "Ġstar": 6160,
  "Ġstare": 6161,
  "Ġstared": 6162,
  "Ġstarfish": 6163,
  "Ġstaring": 6164,
  "Ġstars": 6165,
  "Ġstart": 6166,
  "Ġstarted": 6167,
  "Ġstarting": 6168,
  "Ġstartled": 6169,
  "Ġstarts": 6170,
  "Ġstat": 6171,
  "Ġstation": 6172,
  "Ġstatue": 6173,
  "Ġstatues": 6174,
  "Ġstay": 6175,
  "Ġstayed": 6176,
  "Ġstaying": 6177,
  "Ġstays": 6178,
  "Ġste": 6179,
  "Ġsteady": 6180,
  "Ġsteak": 6181,
  "Ġsteal": 6182,
  "Ġstealing": 6183,
  "Ġsteam": 6184,
  "Ġsteel": 6185,
  "Ġsteep": 6186,
  "Ġsteer": 6187,
  "Ġsteering": 6188,
  "Ġstem": 6189,
  "Ġstep": 6190,
  "Ġstepped": 6191,
  "Ġstepping": 6192,
  "Ġsteps": 6193,
  "Ġstern": 6194,
  "Ġsternly": 6195,
  "Ġsteth": 6196,
  "Ġstethoscope": 6197,
  "Ġstew": 6198,
  "Ġstick": 6199,
  "Ġsticker": 6200,
  "Ġstickers": 6201,
  "Ġsticking": 6202,
  "Ġsticks": 6203,
  "Ġsticky": 6204,
  "Ġstill": 6205,
  "Ġsting": 6206,
  "Ġstings": 6207,
  "Ġstir": 6208,
  "Ġstirred": 6209,
  "Ġstirring": 6210,
  "Ġstirs": 6211,
  "Ġstitch": 6212,
  "Ġstitches": 6213,
  "Ġsto": 6214,
  "Ġstole": 6215,
  "Ġstolen": 6216,
  "Ġstom": 6217,
  "Ġstomach": 6218,
  "Ġstomachs": 6219,
  "Ġstomp": 6220,
  "Ġstomped": 6221,
  "Ġstone": 6222,
  "Ġstones": 6223,
  "Ġstood": 6224,
  "Ġstool": 6225,
  "Ġstop": 6226,
  "Ġstopped": 6227,
  "Ġstopping": 6228,
  "Ġstops": 6229,
  "Ġstor": 6230,
  "Ġstore": 6231,
  "Ġstored": 6232,
  "Ġstorekeeper": 6233,
  "Ġstores": 6234,
  "Ġstories": 6235,
  "Ġstorm": 6236,
  "Ġstorms": 6237,
  "Ġstory": 6238,
  "Ġstove": 6239,
  "Ġstr": 6240,
  "Ġstra": 6241,
  "Ġstraight": 6242,
  "Ġstrang": 6243,
  "Ġstrange": 6244,
  "Ġstranger": 6245,
  "Ġstrangers": 6246,
  "Ġstraw": 6247,
  "Ġstrawberries": 6248,
  "Ġstrawberry": 6249,
  "Ġstre": 6250,
  "Ġstream": 6251,
  "Ġstreamers": 6252,
  "Ġstreet": 6253,
  "Ġstreets": 6254,
  "Ġstreng": 6255,
  "Ġstrength": 6256,
  "Ġstret": 6257,
  "Ġstretch": 6258,
  "Ġstretched": 6259,
  "Ġstretches": 6260,
  "Ġstretching": 6261,
  "Ġstretchy": 6262,
  "Ġstri": 6263,
  "Ġstrike": 6264,
  "Ġstriking": 6265,
  "Ġstring": 6266,
  "Ġstrings": 6267,
  "Ġstrip": 6268,
  "Ġstripes": 6269,
  "Ġstrips": 6270,
  "Ġstro": 6271,
  "Ġstroke": 6272,
  "Ġstroked": 6273,
  "Ġstrokes": 6274,
  "Ġstroll": 6275,
  "Ġstrong": 6276,
  "Ġstronger": 6277,
  "Ġstrongest": 6278,
  "Ġstruck": 6279,
  "Ġstructure": 6280,
  "Ġstructures": 6281,
  "Ġstrugg": 6282,
  "Ġstruggle": 6283,
  "Ġstruggled": 6284,
  "Ġstruggling": 6285,
  "Ġstrum": 6286,
  "Ġstu": 6287,
  "Ġstubb": 6288,
  "Ġstubborn": 6289,
  "Ġstuck": 6290,
  "Ġstud": 6291,
  "Ġstudent": 6292,
  "Ġstudents": 6293,
  "Ġstudied": 6294,
  "Ġstudy": 6295,
  "Ġstudying": 6296,
  "Ġstuff": 6297,
  "Ġstuffed": 6298,
  "Ġstuffing": 6299,
  "Ġstumble": 6300,
  "Ġstumbled": 6301,
  "Ġstun": 6302,
  "Ġstung": 6303,
  "Ġstupid": 6304,
  "Ġsty": 6305,
  "Ġstyle": 6306,
  "Ġstyles": 6307,
  "Ġsu": 6308,
  "Ġsub": 6309,
  "Ġsubway": 6310,
  "Ġsuc": 6311,
  "Ġsucceed": 6312,
  "Ġsucceeded": 6313,
  "Ġsuccess": 6314,
  "Ġsuccessful": 6315,
  "Ġsuccessfully": 6316,
  "Ġsuch": 6317,
  "Ġsuck": 6318,
  "Ġsudden": 6319,
  "Ġsuddenly": 6320,
  "Ġsuff": 6321,
  "Ġsuffer": 6322,
  "Ġsuffered": 6323,
  "Ġsuffering": 6324,
  "Ġsug": 6325,
  "Ġsugar": 6326,
  "Ġsuggest": 6327,
  "Ġsuggested": 6328,
  "Ġsuggestion": 6329,
  "Ġsuit": 6330,
  "Ġsuitcase": 6331,
  "Ġsuits": 6332,
  "Ġsummer": 6333,
  "Ġsun": 6334,
  "Ġsunf": 6335,
  "Ġsunflower": 6336,
  "Ġsunflowers": 6337,
  "Ġsunglasses": 6338,
  "Ġsunlight": 6339,
  "Ġsunny": 6340,
  "Ġsunrise": 6341,
  "Ġsuns": 6342,
  "Ġsunscreen": 6343,
  "Ġsunset": 6344,
  "Ġsunshine": 6345,
  "Ġsuper": 6346,
  "Ġsuperhero": 6347,
  "Ġsuperheroes": 6348,
  "Ġsupp": 6349,
  "Ġsupplied": 6350,
  "Ġsupplies": 6351,
  "Ġsupply": 6352,
  "Ġsupport": 6353,
  "Ġsupported": 6354,
  "Ġsupporting": 6355,
  "Ġsupposed": 6356,
  "Ġsur": 6357,
  "Ġsure": 6358,
  "Ġsurely": 6359,
  "Ġsurf": 6360,
  "Ġsurface": 6361,
  "Ġsurfboard": 6362,
  "Ġsurfed": 6363,
  "Ġsurfing": 6364,
  "Ġsurpr": 6365,
  "Ġsurprise": 6366,
  "Ġsurprised": 6367,
  "Ġsurprises": 6368,
  "Ġsurprising": 6369,
  "Ġsurrender": 6370,
  "Ġsurrendered": 6371,
  "Ġsurround": 6372,
  "Ġsurrounded": 6373,
  "Ġsurroundings": 6374,
  "Ġsurv": 6375,
  "Ġsurvive": 6376,
  "Ġsus": 6377,
  "Ġsw": 6378,
  "Ġswall": 6379,
  "Ġswallow": 6380,
  "Ġswallowed": 6381,
  "Ġswam": 6382,
  "Ġswamp": 6383,
  "Ġswan": 6384,
  "Ġswans": 6385,
  "Ġswap": 6386,
  "Ġswapped": 6387,
  "Ġsway": 6388,
  "Ġswayed": 6389,
  "Ġswaying": 6390,
  "Ġswe": 6391,
  "Ġsweat": 6392,
  "Ġsweater": 6393,
  "Ġsweaters": 6394,
  "Ġsweaty": 6395,
  "Ġsweep": 6396,
  "Ġsweet": 6397,
  "Ġsweeter": 6398,
  "Ġsweetest": 6399,
  "Ġsweetheart": 6400,
  "Ġsweetie": 6401,
  "Ġsweeties": 6402,
  "Ġsweetly": 6403,
  "Ġsweets": 6404,
  "Ġswept": 6405,
  "Ġswim": 6406,
  "Ġswimmer": 6407,
  "Ġswimming": 6408,
  "Ġswims": 6409,
  "Ġswimsuit": 6410,
  "Ġswimsuits": 6411,
  "Ġswing": 6412,
  "Ġswinging": 6413,
  "Ġswings": 6414,
  "Ġswir": 6415,
  "Ġswirl": 6416,
  "Ġswirls": 6417,
  "Ġswitch": 6418,
  "Ġswitched": 6419,
  "Ġswo": 6420,
  "Ġswollen": 6421,
  "Ġswoop": 6422,
  "Ġswooped": 6423,
  "Ġsword": 6424,
  "Ġswords": 6425,
  "Ġswung": 6426,
  "Ġsy": 6427,
  "Ġsym": 6428,
  "Ġsymbol": 6429,
  "Ġsymbols": 6430,
  "Ġsyrup": 6431,
  "Ġt": 6432,
  "Ġtable": 6433,
  "Ġtables": 6434,
  "Ġtablet": 6435,
  "Ġtag": 6436,
  "Ġtail": 6437,
  "Ġtails": 6438,
  "Ġtake": 6439,
  "Ġtaken": 6440,
  "Ġtakes": 6441,
  "Ġtaking": 6442,
  "Ġtal": 6443,
  "Ġtale": 6444,
  "Ġtalent": 6445,
  "Ġtalented": 6446,
  "Ġtalents": 6447,
  "Ġtalk": 6448,
  "Ġtalked": 6449,
  "Ġtalking": 6450,
  "Ġtalks": 6451,
  "Ġtall": 6452,
  "Ġtaller": 6453,
  "Ġtallest": 6454,
  "Ġtangled": 6455,
  "Ġtank": 6456,
  "Ġtant": 6457,
  "Ġtantrum": 6458,
  "Ġtap": 6459,
  "Ġtape": 6460,
  "Ġtaped": 6461,
  "Ġtapped": 6462,
  "Ġtapping": 6463,
  "Ġtaps": 6464,
  "Ġtar": 6465,
  "Ġtarget": 6466,
  "Ġtask": 6467,
  "Ġtasks": 6468,
  "Ġtast": 6469,
  "Ġtaste": 6470,
  "Ġtasted": 6471,
  "Ġtastes": 6472,
  "Ġtasting": 6473,
  "Ġtasty": 6474,
  "Ġtaught": 6475,
  "Ġtax": 6476,
  "Ġtaxi": 6477,
  "Ġte": 6478,
  "Ġtea": 6479,
  "Ġteac": 6480,
  "Ġteach": 6481,
  "Ġteacher": 6482,
  "Ġteachers": 6483,
  "Ġteaches": 6484,
  "Ġteaching": 6485,
  "Ġteam": 6486,
  "Ġteams": 6487,
  "Ġteamwork": 6488,
  "Ġteapot": 6489,
  "Ġtear": 6490,
  "Ġtearing": 6491,
  "Ġtears": 6492,
  "Ġtease": 6493,
  "Ġteased": 6494,
  "Ġteasing": 6495,
  "Ġteaspoon": 6496,
  "Ġteddy": 6497,
  "Ġteeth": 6498,
  "Ġtele": 6499,
  "Ġteleph": 6500,
  "Ġtelephone": 6501,
  "Ġteles": 6502,
  "Ġtelescope": 6503,
  "Ġtelevision": 6504,
  "Ġtell": 6505,
  "Ġtelling": 6506,
  "Ġtells": 6507,
  "Ġtem": 6508,
  "Ġtemp": 6509,
  "Ġtemper": 6510,
  "Ġtemperature": 6511,
  "Ġtemple": 6512,
  "Ġtempt": 6513,
  "Ġtempted": 6514,
  "Ġtempting": 6515,
  "Ġten": 6516,
  "Ġtent": 6517,
  "Ġtents": 6518,
  "Ġter": 6519,
  "Ġterri": 6520,
  "Ġterrible": 6521,
  "Ġterrified": 6522,
  "Ġtest": 6523,
  "Ġtested": 6524,
  "Ġtesting": 6525,
  "Ġtests": 6526,
  "Ġtex": 6527,
  "Ġtexture": 6528,
  "Ġtextures": 6529,
  "Ġth": 6530,
  "Ġthan": 6531,
  "Ġthank": 6532,
  "Ġthanked": 6533,
  "Ġthankful": 6534,
  "Ġthanking": 6535,
  "Ġthanks": 6536,
  "Ġthat": 6537,
  "Ġthe": 6538,
  "Ġtheater": 6539,
  "Ġtheir": 6540,
  "Ġtheirs": 6541,
  "Ġthem": 6542,
  "Ġthemselves": 6543,
  "Ġthen": 6544,
  "Ġthere": 6545,
  "Ġthermometer": 6546,
  "Ġthese": 6547,
  "Ġthey": 6548,
  "Ġthick": 6549,
  "Ġthicker": 6550,
  "Ġthief": 6551,
  "Ġthieves": 6552,
  "Ġthin": 6553,
  "Ġthing": 6554,
  "Ġthings": 6555,
  "Ġthink": 6556,
  "Ġthinking": 6557,
  "Ġthinks": 6558,
  "Ġthird": 6559,
  "Ġthirsty": 6560,
  "Ġthis": 6561,
  "Ġthorn": 6562,
  "Ġthorns": 6563,
  "Ġthose": 6564,
  "Ġthough": 6565,
  "Ġthought": 6566,
  "Ġthoughtful": 6567,
  "Ġthoughts": 6568,
  "Ġthr": 6569,
  "Ġthread": 6570,
  "Ġthreads": 6571,
  "Ġthreat": 6572,
  "Ġthree": 6573,
  "Ġthrew": 6574,
  "Ġthrill": 6575,
  "Ġthrilled": 6576,
  "Ġthro": 6577,
  "Ġthroat": 6578,
  "Ġthrone": 6579,
  "Ġthrough": 6580,
  "Ġthroughout": 6581,
  "Ġthrow": 6582,
  "Ġthrowing": 6583,
  "Ġthrown": 6584,
  "Ġthrows": 6585,
  "Ġthu": 6586,
  "Ġthud": 6587,
  "Ġthumb": 6588,
  "Ġthumbs": 6589,
  "Ġthump": 6590,
  "Ġthunder": 6591,
  "Ġtick": 6592,
  "Ġticket": 6593,
  "Ġtickets": 6594,
  "Ġtickle": 6595,
  "Ġtickled": 6596,
  "Ġtickles": 6597,
  "Ġtickling": 6598,
  "Ġtid": 6599,
  "Ġtide": 6600,
  "Ġtidied": 6601,
  "Ġtidy": 6602,
  "Ġtidying": 6603,
  "Ġtie": 6604,
  "Ġtied": 6605,
  "Ġties": 6606,
  "Ġtiger": 6607,
  "Ġtigers": 6608,
  "Ġtight": 6609,
  "Ġtighter": 6610,
  "Ġtightly": 6611,
  "Ġtil": 6612,
  "Ġtilted": 6613,
  "Ġtim": 6614,
  "Ġtime": 6615,
  "Ġtimer": 6616,
  "Ġtimes": 6617,
  "Ġtimid": 6618,
  "Ġtin": 6619,
  "Ġting": 6620,
  "Ġtiny": 6621,
  "Ġtip": 6622,
  "Ġtipped": 6623,
  "Ġtips": 6624,
  "Ġtipto": 6625,
  "Ġtiptoed": 6626,
  "Ġtire": 6627,
  "Ġtired": 6628,
  "Ġtires": 6629,
  "Ġtiss": 6630,
  "Ġtissue": 6631,
  "Ġto": 6632,
  "Ġtoast": 6633,
  "Ġtoaster": 6634,
  "Ġtoday": 6635,
  "Ġtodd": 6636,
  "Ġtoddler": 6637,
  "Ġtoe": 6638,
  "Ġtoes": 6639,
  "Ġtogether": 6640,
  "Ġtoilet": 6641,
  "Ġtold": 6642,
  "Ġtom": 6643,
  "Ġtomato": 6644,
  "Ġtomatoes": 6645,
  "Ġtomorrow": 6646,
  "Ġtong": 6647,
  "Ġtongue": 6648,
  "Ġtongues": 6649,
  "Ġtonight": 6650,
  "Ġtoo": 6651,
  "Ġtook": 6652,
  "Ġtool": 6653,
  "Ġtoolbox": 6654,
  "Ġtools": 6655,
  "Ġtooth": 6656,
  "Ġtoothbrush": 6657,
  "Ġtop": 6658,
  "Ġtopp": 6659,
  "Ġtoppings": 6660,
  "Ġtops": 6661,
  "Ġtor": 6662,
  "Ġtore": 6663,
  "Ġtorn": 6664,
  "Ġtornado": 6665,
  "Ġtorto": 6666,
  "Ġtortoise": 6667,
  "Ġtoss": 6668,
  "Ġtossed": 6669,
  "Ġtossing": 6670,
  "Ġtouc": 6671,
  "Ġtouch": 6672,
  "Ġtouched": 6673,
  "Ġtouches": 6674,
  "Ġtouching": 6675,
  "Ġtoug": 6676,
  "Ġtough": 6677,
  "Ġtour": 6678,
  "Ġtours": 6679,
  "Ġtow": 6680,
  "Ġtoward": 6681,
  "Ġtowards": 6682,
  "Ġtowel": 6683,
  "Ġtowels": 6684,
  "Ġtower": 6685,
  "Ġtowers": 6686,
  "Ġtown": 6687,
  "Ġtowns": 6688,
  "Ġtoy": 6689,
  "Ġtoys": 6690,
  "Ġtr": 6691,
  "Ġtra": 6692,
  "Ġtrack": 6693,
  "Ġtracks": 6694,
  "Ġtractor": 6695,
  "Ġtrade": 6696,
  "Ġtraded": 6697,
  "Ġtrading": 6698,
  "Ġtraffic": 6699,
  "Ġtrail": 6700,
  "Ġtrain": 6701,
  "Ġtrains": 6702,
  "Ġtramp": 6703,
  "Ġtrampoline": 6704,
  "Ġtrans": 6705,
  "Ġtransform": 6706,
  "Ġtrap": 6707,
  "Ġtrapped": 6708,
  "Ġtraps": 6709,
  "Ġtrash": 6710,
  "Ġtrave": 6711,
  "Ġtravel": 6712,
  "Ġtraveled": 6713,
  "Ġtraveling": 6714,
  "Ġtravelled": 6715,
  "Ġtravelling": 6716,
  "Ġtravels": 6717,
  "Ġtray": 6718,
  "Ġtre": 6719,
  "Ġtreasure": 6720,
  "Ġtreasures": 6721,
  "Ġtreat": 6722,
  "Ġtreated": 6723,
  "Ġtreats": 6724,
  "Ġtree": 6725,
  "Ġtreehouse": 6726,
  "Ġtrees": 6727,
  "Ġtremb": 6728,
  "Ġtremble": 6729,
  "Ġtrembled": 6730,
  "Ġtrembling": 6731,
  "Ġtri": 6732,
  "Ġtriang": 6733,
  "Ġtriangle": 6734,
  "Ġtriangles": 6735,
  "Ġtrick": 6736,
  "Ġtricked": 6737,
  "Ġtricks": 6738,
  "Ġtricky": 6739,
  "Ġtricycle": 6740,
  "Ġtried": 6741,
  "Ġtries": 6742,
  "Ġtrigger": 6743,
  "Ġtrip": 6744,
  "Ġtripped": 6745,
  "Ġtrips": 6746,
  "Ġtroll": 6747,
  "Ġtroph": 6748,
  "Ġtrophy": 6749,
  "Ġtrot": 6750,
  "Ġtrotted": 6751,
  "Ġtrou": 6752,
  "Ġtrouble": 6753,
  "Ġtroubled": 6754,
  "Ġtroubles": 6755,
  "Ġtruck": 6756,
  "Ġtrucks": 6757,
  "Ġtrue": 6758,
  "Ġtruly": 6759,
  "Ġtrumpet": 6760,
  "Ġtrunk": 6761,
  "Ġtrust": 6762,
  "Ġtrusted": 6763,
  "Ġtrusting": 6764,
  "Ġtrusts": 6765,
  "Ġtruth": 6766,
  "Ġtry": 6767,
  "Ġtrying": 6768,
  "Ġtub": 6769,
  "Ġtube": 6770,
  "Ġtubes": 6771,
  "Ġtuck": 6772,
  "Ġtucked": 6773,
  "Ġtug": 6774,
  "Ġtugged": 6775,
  "Ġtugging": 6776,
  "Ġtumbled": 6777,
  "Ġtummies": 6778,
  "Ġtummy": 6779,
  "Ġtuna": 6780,
  "Ġtune": 6781,
  "Ġtunes": 6782,
  "Ġtunnel": 6783,
  "Ġtunnels": 6784,
  "Ġturkey": 6785,
  "Ġturn": 6786,
  "Ġturned": 6787,
  "Ġturning": 6788,
  "Ġturns": 6789,
  "Ġturt": 6790,
  "Ġturtle": 6791,
  "Ġturtles": 6792,
  "Ġtutor": 6793,
  "Ġtw": 6794,
  "Ġtweet": 6795,
  "Ġtwel": 6796,
  "Ġtwelve": 6797,
  "Ġtwenty": 6798,
  "Ġtwice": 6799,
  "Ġtwig": 6800,
  "Ġtwigs": 6801,
  "Ġtwin": 6802,
  "Ġtwink": 6803,
  "Ġtwinkle": 6804,
  "Ġtwinkled": 6805,
  "Ġtwinkling": 6806,
  "Ġtwins": 6807,
  "Ġtwir": 6808,
  "Ġtwirl": 6809,
  "Ġtwirled": 6810,
  "Ġtwirling": 6811,
  "Ġtwist": 6812,
  "Ġtwisted": 6813,
  "Ġtwisting": 6814,
  "Ġtwists": 6815,
  "Ġtwisty": 6816,
  "Ġtwo": 6817,
  "Ġty": 6818,
  "Ġtying": 6819,
  "Ġtype": 6820,
  "Ġtypes": 6821,
  "Ġu": 6822,
  "Ġugly": 6823,
  "Ġumbre": 6824,
  "Ġumbrella": 6825,
  "Ġumbrellas": 6826,
  "Ġun": 6827,
  "Ġunable": 6828,
  "Ġuncle": 6829,
  "Ġuncomfortable": 6830,
  "Ġund": 6831,
  "Ġunder": 6832,
  "Ġunderground": 6833,
  "Ġunderneath": 6834,
  "Ġunderst": 6835,
  "Ġunderstand": 6836,
  "Ġunderstanding": 6837,
  "Ġunderstands": 6838,
  "Ġunderstood": 6839,
  "Ġunderwater": 6840,
  "Ġundone": 6841,
  "Ġunexpected": 6842,
  "Ġunf": 6843,
  "Ġunfair": 6844,
  "Ġunfamiliar": 6845,
  "Ġunfortunately": 6846,
  "Ġunh": 6847,
  "Ġunhappy": 6848,
  "Ġunicorn": 6849,
  "Ġuniform": 6850,
  "Ġuniforms": 6851,
  "Ġunique": 6852,
  "Ġunite": 6853,
  "Ġunited": 6854,
  "Ġuniver": 6855,
  "Ġuniverse": 6856,
  "Ġuniversity": 6857,
  "Ġunknown": 6858,
  "Ġunl": 6859,
  "Ġunless": 6860,
  "Ġunlo": 6861,
  "Ġunlock": 6862,
  "Ġunlocked": 6863,
  "Ġunlocking": 6864,
  "Ġunp": 6865,
  "Ġunpack": 6866,
  "Ġunpacked": 6867,
  "Ġunpacking": 6868,
  "Ġuns": 6869,
  "Ġunsure": 6870,
  "Ġunt": 6871,
  "Ġuntangle": 6872,
  "Ġuntie": 6873,
  "Ġuntied": 6874,
  "Ġuntil": 6875,
  "Ġunus": 6876,
  "Ġunusual": 6877,
  "Ġunw": 6878,
  "Ġunwra": 6879,
  "Ġunwrapped": 6880,
  "Ġunz": 6881,
  "Ġup": 6882,
  "Ġupon": 6883,
  "Ġupset": 6884,
  "Ġupside": 6885,
  "Ġupstairs": 6886,
  "Ġur": 6887,
  "Ġurge": 6888,
  "Ġurged": 6889,
  "Ġus": 6890,
  "Ġuse": 6891,
  "Ġused": 6892,
  "Ġuseful": 6893,
  "Ġuses": 6894,
  "Ġusing": 6895,
  "Ġusual": 6896,
  "Ġusually": 6897,
  "Ġv": 6898,
  "Ġvac": 6899,
  "Ġvacation": 6900,
  "Ġval": 6901,
  "Ġvalley": 6902,
  "Ġvalu": 6903,
  "Ġvaluable": 6904,
  "Ġvalue": 6905,
  "Ġvalued": 6906,
  "Ġvan": 6907,
  "Ġvanilla": 6908,
  "Ġvanish": 6909,
  "Ġvanished": 6910,
  "Ġvase": 6911,
  "Ġve": 6912,
  "Ġvegetable": 6913,
  "Ġvegetables": 6914,
  "Ġvegg": 6915,
  "Ġveggies": 6916,
  "Ġvehic": 6917,
  "Ġvehicle": 6918,
  "Ġvehicles": 6919,
  "Ġveil": 6920,
  "Ġvel": 6921,
  "Ġvelvet": 6922,
  "Ġvend": 6923,
  "Ġvendor": 6924,
  "Ġvent": 6925,
  "Ġventured": 6926,
  "Ġvery": 6927,
  "Ġvest": 6928,
  "Ġvests": 6929,
  "Ġvet": 6930,
  "Ġveterinarian": 6931,
  "Ġvi": 6932,
  "Ġvibr": 6933,
  "Ġvibrant": 6934,
  "Ġvict": 6935,
  "Ġvictory": 6936,
  "Ġvide": 6937,
  "Ġvideo": 6938,
  "Ġvideos": 6939,
  "Ġview": 6940,
  "Ġvill": 6941,
  "Ġvillag": 6942,
  "Ġvillage": 6943,
  "Ġvillagers": 6944,
  "Ġvine": 6945,
  "Ġvinegar": 6946,
  "Ġvines": 6947,
  "Ġviolin": 6948,
  "Ġvis": 6949,
  "Ġvisit": 6950,
  "Ġvisited": 6951,
  "Ġvisiting": 6952,
  "Ġvisitor": 6953,
  "Ġvisitors": 6954,
  "Ġvisits": 6955,
  "Ġvo": 6956,
  "Ġvoice": 6957,
  "Ġvoices": 6958,
  "Ġvolcano": 6959,
  "Ġvowed": 6960,
  "Ġvroom": 6961,
  "Ġw": 6962,
  "Ġwa": 6963,
  "Ġwadd": 6964,
  "Ġwaddled": 6965,
  "Ġwaded": 6966,
  "Ġwaff": 6967,
  "Ġwaffle": 6968,
  "Ġwaffles": 6969,
  "Ġwag": 6970,
  "Ġwagged": 6971,
  "Ġwagging": 6972,
  "Ġwagon": 6973,
  "Ġwags": 6974,
  "Ġwaist": 6975,
  "Ġwait": 6976,
  "Ġwaited": 6977,
  "Ġwaiter": 6978,
  "Ġwaiting": 6979,
  "Ġwaits": 6980,
  "Ġwake": 6981,
  "Ġwakes": 6982,
  "Ġwaking": 6983,
  "Ġwal": 6984,
  "Ġwalk": 6985,
  "Ġwalked": 6986,
  "Ġwalking": 6987,
  "Ġwalks": 6988,
  "Ġwall": 6989,
  "Ġwallet": 6990,
  "Ġwalls": 6991,
  "Ġwand": 6992,
  "Ġwander": 6993,
  "Ġwandered": 6994,
  "Ġwandering": 6995,
  "Ġwant": 6996,
  "Ġwanted": 6997,
  "Ġwanting": 6998,
  "Ġwants": 6999,
  "Ġwar": 7000,
  "Ġward": 7001,
  "Ġwardrobe": 7002,
  "Ġwarm": 7003,
  "Ġwarmed": 7004,
  "Ġwarmer": 7005,
  "Ġwarmly": 7006,
  "Ġwarmth": 7007,
  "Ġwarn": 7008,
  "Ġwarned": 7009,
  "Ġwarning": 7010,
  "Ġwarnings": 7011,
  "Ġwarri": 7012,
  "Ġwarrior": 7013,
  "Ġwas": 7014,
  "Ġwash": 7015,
  "Ġwashed": 7016,
  "Ġwashes": 7017,
  "Ġwashing": 7018,
  "Ġwasn": 7019,
  "Ġwaste": 7020,
  "Ġwasted": 7021,
  "Ġwasting": 7022,
  "Ġwat": 7023,
  "Ġwatch": 7024,
  "Ġwatched": 7025,
  "Ġwatches": 7026,
  "Ġwatching": 7027,
  "Ġwater": 7028,
  "Ġwatered": 7029,
  "Ġwaterfall": 7030,
  "Ġwatering": 7031,
  "Ġwatermel": 7032,
  "Ġwatermelon": 7033,
  "Ġwaters": 7034,
  "Ġwave": 7035,
  "Ġwaved": 7036,
  "Ġwaves": 7037,
  "Ġwaving": 7038,
  "Ġway": 7039,
  "Ġways": 7040,
  "Ġwe": 7041,
  "Ġweak": 7042,
  "Ġweaker": 7043,
  "Ġwealth": 7044,
  "Ġwealthy": 7045,
  "Ġweap": 7046,
  "Ġweapon": 7047,
  "Ġweapons": 7048,
  "Ġwear": 7049,
  "Ġwearing": 7050,
  "Ġwears": 7051,
  "Ġweather": 7052,
  "Ġweb": 7053,
  "Ġwebs": 7054,
  "Ġwedding": 7055,
  "Ġwee": 7056,
  "Ġweeds": 7057,
  "Ġweek": 7058,
  "Ġweekend": 7059,
  "Ġweeks": 7060,
  "Ġweep": 7061,
  "Ġweeping": 7062,
  "Ġweigh": 7063,
  "Ġweighed": 7064,
  "Ġweighing": 7065,
  "Ġweighs": 7066,
  "Ġweight": 7067,
  "Ġweird": 7068,
  "Ġwelc": 7069,
  "Ġwelcome": 7070,
  "Ġwelcomed": 7071,
  "Ġwelcoming": 7072,
  "Ġwell": 7073,
  "Ġwent": 7074,
  "Ġwept": 7075,
  "Ġwere": 7076,
  "Ġweren": 7077,
  "Ġwest": 7078,
  "Ġwet": 7079,
  "Ġwh": 7080,
  "Ġwhale": 7081,
  "Ġwhales": 7082,
  "Ġwhat": 7083,
  "Ġwhatever": 7084,
  "Ġwhe": 7085,
  "Ġwheat": 7086,
  "Ġwheel": 7087,
  "Ġwheels": 7088,
  "Ġwhen": 7089,
  "Ġwhenever": 7090,
  "Ġwhere": 7091,
  "Ġwherever": 7092,
  "Ġwhich": 7093,
  "Ġwhile": 7094,
  "Ġwhimp": 7095,
  "Ġwhimpered": 7096,
  "Ġwhine": 7097,
  "Ġwhined": 7098,
  "Ġwhines": 7099,
  "Ġwhip": 7100,
  "Ġwhiskers": 7101,
  "Ġwhisp": 7102,
  "Ġwhisper": 7103,
  "Ġwhispered": 7104,
  "Ġwhispering": 7105,
  "Ġwhispers": 7106,
  "Ġwhist": 7107,
  "Ġwhistle": 7108,
  "Ġwhistled": 7109,
  "Ġwhistles": 7110,
  "Ġwhistling": 7111,
  "Ġwhite": 7112,
  "Ġwho": 7113,
  "Ġwhoever": 7114,
  "Ġwhole": 7115,
  "Ġwhoosh": 7116,
  "Ġwhose": 7117,
  "Ġwhy": 7118,
  "Ġwid": 7119,
  "Ġwide": 7120,
  "Ġwidened": 7121,
  "Ġwider": 7122,
  "Ġwife": 7123,
  "Ġwig": 7124,
  "Ġwigg": 7125,
  "Ġwiggle": 7126,
  "Ġwiggled": 7127,
  "Ġwiggling": 7128,
  "Ġwiggly": 7129,
  "Ġwild": 7130,
  "Ġwildflowers": 7131,
  "Ġwill": 7132,
  "Ġwilling": 7133,
  "Ġwin": 7134,
  "Ġwind": 7135,
  "Ġwinding": 7136,
  "Ġwindow": 7137,
  "Ġwindows": 7138,
  "Ġwindowsill": 7139,
  "Ġwinds": 7140,
  "Ġwindy": 7141,
  "Ġwine": 7142,
  "Ġwing": 7143,
  "Ġwings": 7144,
  "Ġwink": 7145,
  "Ġwinked": 7146,
  "Ġwinner": 7147,
  "Ġwinners": 7148,
  "Ġwinning": 7149,
  "Ġwins": 7150,
  "Ġwinter": 7151,
  "Ġwip": 7152,
  "Ġwipe": 7153,
  "Ġwiped": 7154,
  "Ġwipes": 7155,
  "Ġwiping": 7156,
  "Ġwire": 7157,
  "Ġwires": 7158,
  "Ġwis": 7159,
  "Ġwisdom": 7160,
  "Ġwise": 7161,
  "Ġwisely": 7162,
  "Ġwiser": 7163,
  "Ġwish": 7164,
  "Ġwished": 7165,
  "Ġwishes": 7166,
  "Ġwishing": 7167,
  "Ġwitch": 7168,
  "Ġwith": 7169,
  "Ġwithin": 7170,
  "Ġwithout": 7171,
  "Ġwiz": 7172,
  "Ġwizard": 7173,
  "Ġwo": 7174,
  "Ġwob": 7175,
  "Ġwobble": 7176,
  "Ġwobbled": 7177,
  "Ġwobbly": 7178,
  "Ġwoke": 7179,
  "Ġwoken": 7180,
  "Ġwolf": 7181,
  "Ġwolves": 7182,
  "Ġwoman": 7183,
  "Ġwon": 7184,
  "Ġwonder": 7185,
  "Ġwondered": 7186,
  "Ġwonderful": 7187,
  "Ġwondering": 7188,
  "Ġwonders": 7189,
  "Ġwood": 7190,
  "Ġwoodcut": 7191,
  "Ġwoodcutter": 7192,
  "Ġwooden": 7193,
  "Ġwoods": 7194,
  "Ġwoof": 7195,
  "Ġwool": 7196,
  "Ġwor": 7197,
  "Ġword": 7198,
  "Ġwords": 7199,
  "Ġwore": 7200,
  "Ġwork": 7201,
  "Ġworked": 7202,
  "Ġworker": 7203,
  "Ġworkers": 7204,
  "Ġworking": 7205,
  "Ġworks": 7206,
  "Ġworld": 7207,
  "Ġworm": 7208,
  "Ġworms": 7209,
  "Ġworn": 7210,
  "Ġworried": 7211,
  "Ġworries": 7212,
  "Ġworry": 7213,
  "Ġworrying": 7214,
  "Ġworse": 7215,
  "Ġworst": 7216,
  "Ġworth": 7217,
  "Ġwould": 7218,
  "Ġwouldn": 7219,
  "Ġwound": 7220,
  "Ġwounds": 7221,
  "Ġwow": 7222,
  "Ġwr": 7223,
  "Ġwra": 7224,
  "Ġwrap": 7225,
  "Ġwrapped": 7226,
  "Ġwrapper": 7227,
  "Ġwrapping": 7228,
  "Ġwraps": 7229,
  "Ġwre": 7230,
  "Ġwreck": 7231,
  "Ġwrench": 7232,
  "Ġwrigg": 7233,
  "Ġwriggled": 7234,
  "Ġwrink": 7235,
  "Ġwrinkled": 7236,
  "Ġwrist": 7237,
  "Ġwrit": 7238,
  "Ġwrite": 7239,
  "Ġwriter": 7240,
  "Ġwrites": 7241,
  "Ġwriting": 7242,
  "Ġwritten": 7243,
  "Ġwrong": 7244,
  "Ġwrote": 7245,
  "Ġx": 7246,
  "Ġy": 7247,
  "Ġyach": 7248,
  "Ġyacht": 7249,
  "Ġyard": 7250,
  "Ġyarn": 7251,
  "Ġyaw": 7252,
  "Ġyawn": 7253,
  "Ġyawned": 7254,
  "Ġyawning": 7255,
  "Ġyear": 7256,
  "Ġyears": 7257,
  "Ġyell": 7258,
  "Ġyelled": 7259,
  "Ġyelling": 7260,
  "Ġyellow": 7261,
  "Ġyells": 7262,
  "Ġyelp": 7263,
  "Ġyelped": 7264,
  "Ġyes": 7265,
  "Ġyesterday": 7266,
  "Ġyet": 7267,
  "Ġyield": 7268,
  "Ġyielded": 7269,
  "Ġyog": 7270,
  "Ġyoga": 7271,
  "Ġyogurt": 7272,
  "Ġyou": 7273,
  "Ġyoun": 7274,
  "Ġyoung": 7275,
  "Ġyounger": 7276,
  "Ġyoungest": 7277,
  "Ġyour": 7278,
  "Ġyours": 7279,
  "Ġyourself": 7280,
  "Ġyourselves": 7281,
  "Ġyouth": 7282,
  "Ġyucky": 7283,
  "Ġyum": 7284,
  "Ġyumm": 7285,
  "Ġyummiest": 7286,
  "Ġyummy": 7287,
  "Ġz": 7288,
  "Ġzebra": 7289,
  "Ġzebras": 7290,
  "Ġzero": 7291,
  "Ġzigzag": 7292,
  "Ġzigzags": 7293,
  "Ġzip": 7294,
  "Ġzipp": 7295,
  "Ġzipped": 7296,
  "Ġzipper": 7297,
  "Ġzipping": 7298,
  "Ġzips": 7299,
  "Ġzoo": 7300,
  "Ġzookeeper": 7301,
  "Ġzookeepers": 7302,
  "Ġzoom": 7303,
  "Ġzoomed": 7304,
  "Ġzooming": 7305,
  "Ġzooms": 7306,
  "ĠâĢ": 7307,
  "ĠâĢĵ": 7308,
  "ĠâĢĶ": 7309,
  "ĠâĢĺ": 7310,
  "ĠâĢľ": 7311,
  "!": 7312,
  "!\"": 7313,
  "!\",": 7314,
  "!\".": 7315,
  "!'": 7316,
  "!'.": 7317,
  "!âĢĻ": 7318,
  "!âĢĿ": 7319,
  "!âĢĿ.": 7320,
  "\"": 7321,
  "\",": 7322,
  "\".": 7323,
  "#": 7324,
  "$": 7325,
  "%": 7326,
  "&": 7327,
  "'": 7328,
  "',": 7329,
  "'.": 7330,
  "'.\"": 7331,
  "'d": 7332,
  "'ll": 7333,
  "'m": 7334,
  "'re": 7335,
  "'s": 7336,
  "'t": 7337,
  "'ve": 7338,
  "(": 7339,
  ")": 7340,
  "*": 7341,
  "+": 7342,
  ",": 7343,
  ",\"": 7344,
  ",'": 7345,
  ",âĢĿ": 7346,
  "-": 7347,
  "--": 7348,
  ".": 7349,
  ".\"": 7350,
  ".'": 7351,
  ".'\"": 7352,
  "..": 7353,
  "...": 7354,
  "...\"": 7355,
  ".âĢĿ": 7356,
  "/": 7357,
  "0": 7358,
  "1": 7359,
  "2": 7360,
  "3": 7361,
  "4": 7362,
  "5": 7363,
  "6": 7364,
  "7": 7365,
  "8": 7366,
  "9": 7367,
  ":": 7368,
  ";": 7369,
  "<": 7370,
  "<|endoftext|>": 7371,
  "=": 7372,
  ">": 7373,
  "?": 7374,
  "?!\"": 7375,
  "?\"": 7376,
  "?\",": 7377,
  "?\".": 7378,
  "?'": 7379,
  "?âĢĿ": 7380,
  "?âĢĿ.": 7381,
  "@": 7382,
  "A": 7383,
  "Ab": 7384,
  "Abby": 7385,
  "Abigail": 7386,
  "Abracadabra": 7387,
  "Achoo": 7388,
  "Adam": 7389,
  "After": 7390,
  "Afterwards": 7391,
  "Ah": 7392,
  "Ahh": 7393,
  "Ahoy": 7394,
  "Al": 7395,
  "Alex": 7396,
  "Alice": 7397,
  "All": 7398,
  "Alright": 7399,
  "Always": 7400,
  "Am": 7401,
  "Amy": 7402,
  "An": 7403,
  "And": 7404,
  "Andy": 7405,
  "Ann": 7406,
  "Anna": 7407,
  "Anne": 7408,
  "Annie": 7409,
  "Any": 7410,
  "Are": 7411,
  "Arrr": 7412,
  "As": 7413,
  "At": 7414,
  "Aunt": 7415,
  "Ava": 7416,
  "B": 7417,
  "Baa": 7418,
  "Baby": 7419,
  "Back": 7420,
  "Bad": 7421,
  "Ball": 7422,
  "Bang": 7423,
  "Be": 7424,
  "Bear": 7425,
  "Because": 7426,
  "Bee": 7427,
  "Beep": 7428,
  "Before": 7429,
  "Behind": 7430,
  "Being": 7431,
  "Bella": 7432,
  "Ben": 7433,
  "Benny": 7434,
  "Bessie": 7435,
  "Beth": 7436,
  "Betty": 7437,
  "Big": 7438,
  "Bill": 7439,
  "Billy": 7440,
  "Binky": 7441,
  "Bird": 7442,
  "Birdy": 7443,
  "Bl": 7444,
  "Bless": 7445,
  "Blue": 7446,
  "Bluey": 7447,
  "Bo": 7448,
  "Bob": 7449,
  "Bobby": 7450,
  "Bobo": 7451,
  "Boo": 7452,
  "Both": 7453,
  "Bounce": 7454,
  "Bow": 7455,
  "Boys": 7456,
  "Br": 7457,
  "Brrr": 7458,
  "Bu": 7459,
  "Bubbles": 7460,
  "Buddy": 7461,
  "Bug": 7462,
  "Bunny": 7463,
  "But": 7464,
  "Buzz": 7465,
  "Buzzy": 7466,
  "By": 7467,
  "Bye": 7468,
  "C": 7469,
  "Can": 7470,
  "Car": 7471,
  "Carl": 7472,
  "Cat": 7473,
  "Catch": 7474,
  "Ch": 7475,
  "Charlie": 7476,
  "Che": 7477,
  "Chicky": 7478,
  "Chirpy": 7479,
  "Chloe": 7480,
  "Choo": 7481,
  "Cindy": 7482,
  "Cl": 7483,
  "Claire": 7484,
  "Clara": 7485,
  "Climb": 7486,
  "Close": 7487,
  "Co": 7488,
  "Coco": 7489,
  "Come": 7490,
  "Cra": 7491,
  "Curious": 7492,
  "D": 7493,
  "Dad": 7494,
  "Daddy": 7495,
  "Daisy": 7496,
  "Dan": 7497,
  "Danger": 7498,
  "Danny": 7499,
  "Dave": 7500,
  "David": 7501,
  "Days": 7502,
  "Deal": 7503,
  "Dear": 7504,
  "Did": 7505,
  "Dino": 7506,
  "Do": 7507,
  "Doctor": 7508,
  "Does": 7509,
  "Dog": 7510,
  "Doggy": 7511,
  "Dolly": 7512,
  "Don": 7513,
  "Dr": 7514,
  "Ducky": 7515,
  "During": 7516,
  "E": 7517,
  "Each": 7518,
  "Eat": 7519,
  "Ella": 7520,
  "Ellie": 7521,
  "Elly": 7522,
  "Em": 7523,
  "Emily": 7524,
  "Emma": 7525,
  "Even": 7526,
  "Eventually": 7527,
  "Every": 7528,
  "Everyone": 7529,
  "Everything": 7530,
  "Ew": 7531,
  "Eww": 7532,
  "Ex": 7533,
  "Excited": 7534,
  "Excuse": 7535,
  "F": 7536,
  "Fifi": 7537,
  "Fin": 7538,
  "Finally": 7539,
  "Find": 7540,
  "Fine": 7541,
  "Finn": 7542,
  "Finny": 7543,
  "Fire": 7544,
  "First": 7545,
  "Fish": 7546,
  "Fl": 7547,
  "Fluffy": 7548,
  "Fly": 7549,
  "Fo": 7550,
  "Follow": 7551,
  "For": 7552,
  "Found": 7553,
  "Fr": 7554,
  "Frank": 7555,
  "Fred": 7556,
  "Freddy": 7557,
  "Freeze": 7558,
  "Friends": 7559,
  "Frog": 7560,
  "Froggy": 7561,
  "From": 7562,
  "G": 7563,
  "George": 7564,
  "Get": 7565,
  "Gigi": 7566,
  "Gina": 7567,
  "Give": 7568,
  "Go": 7569,
  "Good": 7570,
  "Goodbye": 7571,
  "Goodnight": 7572,
  "Got": 7573,
  "Gr": 7574,
  "Gra": 7575,
  "Grace": 7576,
  "Grandma": 7577,
  "Grandpa": 7578,
  "Great": 7579,
  "Grow": 7580,
  "Guess": 7581,
  "H": 7582,
  "Ha": 7583,
  "Hannah": 7584,
  "Happy": 7585,
  "Harry": 7586,
  "Have": 7587,
  "He": 7588,
  "Hello": 7589,
  "Help": 7590,
  "Henry": 7591,
  "Her": 7592,
  "Here": 7593,
  "Hey": 7594,
  "Hi": 7595,
  "His": 7596,
  "Hmm": 7597,
  "Hold": 7598,
  "Honey": 7599,
  "Hop": 7600,
  "Hope": 7601,
  "Hoppy": 7602,
  "How": 7603,
  "However": 7604,
  "Hurry": 7605,
  "I": 7606,
  "If": 7607,
  "Im": 7608,
  "In": 7609,
  "Inside": 7610,
  "Instead": 7611,
  "Is": 7612,
  "Isn": 7613,
  "It": 7614,
  "J": 7615,
  "Jack": 7616,
  "Jacob": 7617,
  "Jake": 7618,
  "James": 7619,
  "Jamie": 7620,
  "Jan": 7621,
  "Jane": 7622,
  "Jazz": 7623,
  "Je": 7624,
  "Jeff": 7625,
  "Jen": 7626,
  "Jenny": 7627,
  "Jerry": 7628,
  "Jess": 7629,
  "Jessica": 7630,
  "Jessie": 7631,
  "Jill": 7632,
  "Jim": 7633,
  "Jimmy": 7634,
  "Jo": 7635,
  "Joe": 7636,
  "Joey": 7637,
  "John": 7638,
  "Johnny": 7639,
  "Jon": 7640,
  "Josh": 7641,
  "Joy": 7642,
  "Jul": 7643,
  "Julia": 7644,
  "Julie": 7645,
  "Jump": 7646,
  "Just": 7647,
  "K": 7648,
  "Karen": 7649,
  "Kate": 7650,
  "Katie": 7651,
  "Kayla": 7652,
  "Keep": 7653,
  "Kids": 7654,
  "Kiki": 7655,
  "Kim": 7656,
  "Kitty": 7657,
  "L": 7658,
  "Later": 7659,
  "Le": 7660,
  "Leave": 7661,
  "Lena": 7662,
  "Leo": 7663,
  "Let": 7664,
  "Lia": 7665,
  "Like": 7666,
  "Lila": 7667,
  "Lilly": 7668,
  "Lily": 7669,
  "Linda": 7670,
  "Lisa": 7671,
  "Listen": 7672,
  "Little": 7673,
  "Liz": 7674,
  "Lizzie": 7675,
  "Lizzy": 7676,
  "Lola": 7677,
  "Look": 7678,
  "Lou": 7679,
  "Luckily": 7680,
  "Lucky": 7681,
  "Lucy": 7682,
  "Luke": 7683,
  "Lulu": 7684,
  "Luna": 7685,
  "M": 7686,
  "Mabel": 7687,
  "Mad": 7688,
  "Maddy": 7689,
  "Maggie": 7690,
  "Magic": 7691,
  "Make": 7692,
  "Mama": 7693,
  "Mandy": 7694,
  "Many": 7695,
  "Mar": 7696,
  "Maria": 7697,
  "Mark": 7698,
  "Mary": 7699,
  "Mat": 7700,
  "Matt": 7701,
  "Max": 7702,
  "May": 7703,
  "Maya": 7704,
  "Maybe": 7705,
  "Me": 7706,
  "Meanwhile": 7707,
  "Meow": 7708,
  "Mia": 7709,
  "Michael": 7710,
  "Mike": 7711,
  "Mikey": 7712,
  "Millie": 7713,
  "Milly": 7714,
  "Milo": 7715,
  "Mimi": 7716,
  "Mine": 7717,
  "Mira": 7718,
  "Miss": 7719,
  "Mittens": 7720,
  "Mmm": 7721,
  "Mo": 7722,
  "Molly": 7723,
  "Mom": 7724,
  "Momma": 7725,
  "Mommy": 7726,
  "Momo": 7727,
  "Mon": 7728,
  "Moo": 7729,
  "Moral": 7730,
  "More": 7731,
  "Mother": 7732,
  "Mouse": 7733,
  "Mr": 7734,
  "Mrs": 7735,
  "Mum": 7736,
  "Mummy": 7737,
  "My": 7738,
  "N": 7739,
  "Near": 7740,
  "Never": 7741,
  "Next": 7742,
  "Nice": 7743,
  "Nick": 7744,
  "Nina": 7745,
  "No": 7746,
  "Not": 7747,
  "Nothing": 7748,
  "Now": 7749,
  "O": 7750,
  "OK": 7751,
  "OO": 7752,
  "Of": 7753,
  "Oh": 7754,
  "Ok": 7755,
  "Okay": 7756,
  "Ol": 7757,
  "Olive": 7758,
  "Ollie": 7759,
  "On": 7760,
  "Once": 7761,
  "One": 7762,
  "Only": 7763,
  "Ooh": 7764,
  "Oops": 7765,
  "Open": 7766,
  "Or": 7767,
  "Ouch": 7768,
  "Our": 7769,
  "Out": 7770,
  "Outside": 7771,
  "Ow": 7772,
  "Owl": 7773,
  "P": 7774,
  "Pandy": 7775,
  "Papa": 7776,
  "Pat": 7777,
  "Paul": 7778,
  "Pe": 7779,
  "Penny": 7780,
  "People": 7781,
  "Pepper": 7782,
  "Pete": 7783,
  "Peter": 7784,
  "Pinky": 7785,
  "Pip": 7786,
  "Pipp": 7787,
  "Pippin": 7788,
  "Play": 7789,
  "Playing": 7790,
  "Please": 7791,
  "Polly": 7792,
  "Poppy": 7793,
  "Put": 7794,
  "Q": 7795,
  "Qu": 7796,
  "Quack": 7797,
  "Quick": 7798,
  "R": 7799,
  "Rabbit": 7800,
  "Rachel": 7801,
  "Rain": 7802,
  "Ralph": 7803,
  "Ray": 7804,
  "Re": 7805,
  "Ready": 7806,
  "Really": 7807,
  "Red": 7808,
  "Remember": 7809,
  "Remy": 7810,
  "Rex": 7811,
  "Ribbit": 7812,
  "Ring": 7813,
  "Ro": 7814,
  "Roar": 7815,
  "Rob": 7816,
  "Robbie": 7817,
  "Robby": 7818,
  "Rock": 7819,
  "Rocky": 7820,
  "Ros": 7821,
  "Rose": 7822,
  "Rosie": 7823,
  "Ru": 7824,
  "Ruby": 7825,
  "Run": 7826,
  "S": 7827,
  "Sad": 7828,
  "Sadly": 7829,
  "Sally": 7830,
  "Sam": 7831,
  "Sammy": 7832,
  "Sandy": 7833,
  "Sara": 7834,
  "Sarah": 7835,
  "Sc": 7836,
  "See": 7837,
  "Sh": 7838,
  "Share": 7839,
  "Sharing": 7840,
  "She": 7841,
  "Shh": 7842,
  "Shoo": 7843,
  "Should": 7844,
  "Shrink": 7845,
  "Silly": 7846,
  "Since": 7847,
  "Sleep": 7848,
  "Slow": 7849,
  "Slowly": 7850,
  "Sm": 7851,
  "Sn": 7852,
  "Snap": 7853,
  "Snow": 7854,
  "Snowy": 7855,
  "So": 7856,
  "Some": 7857,
  "Someone": 7858,
  "Somet": 7859,
  "Something": 7860,
  "Sometimes": 7861,
  "Soon": 7862,
  "Sophia": 7863,
  "Sophie": 7864,
  "Sorry": 7865,
  "Sp": 7866,
  "Spe": 7867,
  "Speedy": 7868,
  "Spike": 7869,
  "Splash": 7870,
  "Spot": 7871,
  "Squ": 7872,
  "Sque": 7873,
  "Squeaky": 7874,
  "St": 7875,
  "Stay": 7876,
  "Steve": 7877,
  "Still": 7878,
  "Stop": 7879,
  "Su": 7880,
  "Suddenly": 7881,
  "Sue": 7882,
  "Sun": 7883,
  "Sunny": 7884,
  "Sure": 7885,
  "Surpr": 7886,
  "Surprise": 7887,
  "Surrender": 7888,
  "Susan": 7889,
  "Susie": 7890,
  "Suzie": 7891,
  "Suzy": 7892,
  "Sw": 7893,
  "Sweet": 7894,
  "T": 7895,
  "Take": 7896,
  "Tara": 7897,
  "Ted": 7898,
  "Teddy": 7899,
  "Th": 7900,
  "Thank": 7901,
  "Thanks": 7902,
  "That": 7903,
  "The": 7904,
  "Their": 7905,
  "Then": 7906,
  "There": 7907,
  "These": 7908,
  "They": 7909,
  "This": 7910,
  "Thomas": 7911,
  "Those": 7912,
  "Three": 7913,
  "Tilly": 7914,
  "Tim": 7915,
  "Time": 7916,
  "Timmy": 7917,
  "Tina": 7918,
  "Tiny": 7919,
  "To": 7920,
  "Toby": 7921,
  "Today": 7922,
  "Together": 7923,
  "Tom": 7924,
  "Tommy": 7925,
  "Tony": 7926,
  "Too": 7927,
  "Toys": 7928,
  "Tr": 7929,
  "Tree": 7930,
  "True": 7931,
  "Trust": 7932,
  "Try": 7933,
  "Tuna": 7934,
  "Tw": 7935,
  "Tweet": 7936,
  "Two": 7937,
  "U": 7938,
  "Uh": 7939,
  "Un": 7940,
  "Uncle": 7941,
  "Under": 7942,
  "Unfortunately": 7943,
  "Use": 7944,
  "V": 7945,
  "Very": 7946,
  "Vroom": 7947,
  "W": 7948,
  "Wait": 7949,
  "Wake": 7950,
  "Wally": 7951,
  "Want": 7952,
  "Watch": 7953,
  "We": 7954,
  "Welcome": 7955,
  "Well": 7956,
  "Wh": 7957,
  "What": 7958,
  "Whee": 7959,
  "When": 7960,
  "Whenever": 7961,
  "Where": 7962,
  "Which": 7963,
  "While": 7964,
  "Whiskers": 7965,
  "Who": 7966,
  "Whose": 7967,
  "Why": 7968,
  "Wiggly": 7969,
  "Will": 7970,
  "With": 7971,
  "Woof": 7972,
  "Would": 7973,
  "Wow": 7974,
  "X": 7975,
  "Y": 7976,
  "Yay": 7977,
  "Yeah": 7978,
  "Yes": 7979,
  "Yesterday": 7980,
  "You": 7981,
  "Your": 7982,
  "Yuck": 7983,
  "Yum": 7984,
  "Yummy": 7985,
  "Z": 7986,
  "Zara": 7987,
  "Zero": 7988,
  "Zigzag": 7989,
  "Zip": 7990,
  "Zoe": 7991,
  "Zoom": 7992,
  "Zoomy": 7993,
  "[": 7994,
  "\\": 7995,
  "]": 7996,
  "^": 7997,
  "_": 7998,
  "`": 7999,
  "a": 8000,
  "aa": 8001,
  "ab": 8002,
  "abbit": 8003,
  "abby": 8004,
  "abel": 8005,
  "abelle": 8006,
  "abies": 8007,
  "able": 8008,
  "ably": 8009,
  "abra": 8010,
  "aby": 8011,
  "ac": 8012,
  "ace": 8013,
  "aced": 8014,
  "ach": 8015,
  "ache": 8016,
  "ached": 8017,
  "achel": 8018,
  "aches": 8019,
  "acing": 8020,
  "ack": 8021,
  "acked": 8022,
  "acles": 8023,
  "acob": 8024,
  "acock": 8025,
  "act": 8026,
  "acy": 8027,
  "ad": 8028,
  "adabra": 8029,
  "ade": 8030,
  "aded": 8031,
  "ades": 8032,
  "ading": 8033,
  "adium": 8034,
  "ado": 8035,
  "ados": 8036,
  "adow": 8037,
  "adually": 8038,
  "ady": 8039,
  "ae": 8040,
  "ael": 8041,
  "af": 8042,
  "aff": 8043,
  "affe": 8044,
  "affes": 8045,
  "affle": 8046,
  "ag": 8047,
  "age": 8048,
  "aged": 8049,
  "ages": 8050,
  "aggie": 8051,
  "aghett": 8052,
  "aghetti": 8053,
  "agic": 8054,
  "agine": 8055,
  "agull": 8056,
  "ah": 8057,
  "ai": 8058,
  "aid": 8059,
  "aids": 8060,
  "ail": 8061,
  "ailable": 8062,
  "ails": 8063,
  "ain": 8064,
  "aint": 8065,
  "air": 8066,
  "airs": 8067,
  "airy": 8068,
  "ais": 8069,
  "aisies": 8070,
  "aisy": 8071,
  "ait": 8072,
  "ak": 8073,
  "ake": 8074,
  "aked": 8075,
  "aken": 8076,
  "aker": 8077,
  "akes": 8078,
  "aking": 8079,
  "aky": 8080,
  "al": 8081,
  "ala": 8082,
  "ale": 8083,
  "alend": 8084,
  "ales": 8085,
  "alf": 8086,
  "alk": 8087,
  "all": 8088,
  "allen": 8089,
  "alley": 8090,
  "allow": 8091,
  "alloween": 8092,
  "ally": 8093,
  "alm": 8094,
  "alous": 8095,
  "alph": 8096,
  "als": 8097,
  "alth": 8098,
  "althy": 8099,
  "am": 8100,
  "ama": 8101,
  "amb": 8102,
  "amber": 8103,
  "amboo": 8104,
  "ame": 8105,
  "amed": 8106,
  "ames": 8107,
  "amie": 8108,
  "amil": 8109,
  "amiliar": 8110,
  "amma": 8111,
  "ammy": 8112,
  "amond": 8113,
  "amp": 8114,
  "ampoo": 8115,
  "an": 8116,
  "ana": 8117,
  "ance": 8118,
  "anced": 8119,
  "ancy": 8120,
  "and": 8121,
  "anda": 8122,
  "andas": 8123,
  "andra": 8124,
  "andy": 8125,
  "ane": 8126,
  "anes": 8127,
  "ang": 8128,
  "angaroo": 8129,
  "ange": 8130,
  "anged": 8131,
  "anger": 8132,
  "anges": 8133,
  "anging": 8134,
  "angle": 8135,
  "angled": 8136,
  "angu": 8137,
  "ani": 8138,
  "anie": 8139,
  "anish": 8140,
  "ank": 8141,
  "anna": 8142,
  "annah": 8143,
  "anny": 8144,
  "ans": 8145,
  "ant": 8146,
  "anta": 8147,
  "antastic": 8148,
  "anted": 8149,
  "antha": 8150,
  "antly": 8151,
  "anut": 8152,
  "anwhile": 8153,
  "any": 8154,
  "ap": 8155,
  "apa": 8156,
  "ape": 8157,
  "aped": 8158,
  "aper": 8159,
  "apers": 8160,
  "app": 8161,
  "apped": 8162,
  "apping": 8163,
  "appy": 8164,
  "aps": 8165,
  "aptain": 8166,
  "ar": 8167,
  "ara": 8168,
  "arac": 8169,
  "araway": 8170,
  "ard": 8171,
  "arden": 8172,
  "ards": 8173,
  "are": 8174,
  "ared": 8175,
  "aren": 8176,
  "arent": 8177,
  "arge": 8178,
  "ari": 8179,
  "arian": 8180,
  "aring": 8181,
  "ark": 8182,
  "arky": 8183,
  "arl": 8184,
  "arlie": 8185,
  "arlings": 8186,
  "arlotte": 8187,
  "arm": 8188,
  "armer": 8189,
  "arn": 8190,
  "arning": 8191,
  "aroo": 8192,
  "arp": 8193,
  "arrass": 8194,
  "arrow": 8195,
  "arry": 8196,
  "ars": 8197,
  "art": 8198,
  "arted": 8199,
  "arter": 8200,
  "arth": 8201,
  "artin": 8202,
  "artled": 8203,
  "ary": 8204,
  "as": 8205,
  "ase": 8206,
  "ased": 8207,
  "aser": 8208,
  "asers": 8209,
  "ash": 8210,
  "asha": 8211,
  "ashed": 8212,
  "ashes": 8213,
  "ashing": 8214,
  "asing": 8215,
  "asis": 8216,
  "ask": 8217,
  "asket": 8218,
  "asmine": 8219,
  "ason": 8220,
  "asp": 8221,
  "aspoon": 8222,
  "ass": 8223,
  "asses": 8224,
  "ast": 8225,
  "aste": 8226,
  "aster": 8227,
  "astic": 8228,
  "asty": 8229,
  "asure": 8230,
  "asy": 8231,
  "at": 8232,
  "atch": 8233,
  "ate": 8234,
  "ated": 8235,
  "ately": 8236,
  "ater": 8237,
  "ates": 8238,
  "ath": 8239,
  "athan": 8240,
  "ather": 8241,
  "athy": 8242,
  "atie": 8243,
  "atient": 8244,
  "ating": 8245,
  "ation": 8246,
  "ations": 8247,
  "ative": 8248,
  "ato": 8249,
  "ator": 8250,
  "ats": 8251,
  "atter": 8252,
  "attered": 8253,
  "atty": 8254,
  "atur": 8255,
  "aturday": 8256,
  "ature": 8257,
  "aty": 8258,
  "au": 8259,
  "aud": 8260,
  "aug": 8261,
  "aught": 8262,
  "aughter": 8263,
  "aughty": 8264,
  "aul": 8265,
  "aur": 8266,
  "aura": 8267,
  "aurant": 8268,
  "ause": 8269,
  "aut": 8270,
  "av": 8271,
  "ave": 8272,
  "aved": 8273,
  "aven": 8274,
  "aver": 8275,
  "avi": 8276,
  "avid": 8277,
  "aving": 8278,
  "avy": 8279,
  "aw": 8280,
  "awn": 8281,
  "aws": 8282,
  "ax": 8283,
  "ay": 8284,
  "aybe": 8285,
  "aye": 8286,
  "ayla": 8287,
  "ays": 8288,
  "az": 8289,
  "aze": 8290,
  "azor": 8291,
  "azz": 8292,
  "b": 8293,
  "bage": 8294,
  "ball": 8295,
  "band": 8296,
  "bang": 8297,
  "bank": 8298,
  "bb": 8299,
  "bbed": 8300,
  "bbers": 8301,
  "bbie": 8302,
  "bbing": 8303,
  "bble": 8304,
  "bbled": 8305,
  "bbles": 8306,
  "bby": 8307,
  "be": 8308,
  "bed": 8309,
  "bee": 8310,
  "beep": 8311,
  "bell": 8312,
  "ber": 8313,
  "berries": 8314,
  "berry": 8315,
  "bers": 8316,
  "bert": 8317,
  "bie": 8318,
  "bird": 8319,
  "bit": 8320,
  "bl": 8321,
  "ble": 8322,
  "bled": 8323,
  "bles": 8324,
  "bling": 8325,
  "blings": 8326,
  "bly": 8327,
  "bo": 8328,
  "board": 8329,
  "boards": 8330,
  "boat": 8331,
  "body": 8332,
  "bol": 8333,
  "boo": 8334,
  "bow": 8335,
  "box": 8336,
  "br": 8337,
  "broken": 8338,
  "brush": 8339,
  "bu": 8340,
  "bul": 8341,
  "bulance": 8342,
  "but": 8343,
  "by": 8344,
  "bye": 8345,
  "byes": 8346,
  "c": 8347,
  "ca": 8348,
  "cake": 8349,
  "cakes": 8350,
  "case": 8351,
  "cast": 8352,
  "cat": 8353,
  "cc": 8354,
  "ccer": 8355,
  "ccol": 8356,
  "ccoli": 8357,
  "ce": 8358,
  "cean": 8359,
  "ced": 8360,
  "ceed": 8361,
  "cept": 8362,
  "cer": 8363,
  "cery": 8364,
  "cess": 8365,
  "cessary": 8366,
  "ch": 8367,
  "chair": 8368,
  "chan": 8369,
  "chanic": 8370,
  "ched": 8371,
  "chen": 8372,
  "cher": 8373,
  "ches": 8374,
  "chie": 8375,
  "chief": 8376,
  "chievous": 8377,
  "child": 8378,
  "ching": 8379,
  "cho": 8380,
  "choo": 8381,
  "chool": 8382,
  "chor": 8383,
  "cident": 8384,
  "cidents": 8385,
  "cie": 8386,
  "cient": 8387,
  "cil": 8388,
  "cing": 8389,
  "cious": 8390,
  "cited": 8391,
  "ck": 8392,
  "cked": 8393,
  "cker": 8394,
  "cket": 8395,
  "cks": 8396,
  "cky": 8397,
  "cl": 8398,
  "cle": 8399,
  "cles": 8400,
  "co": 8401,
  "coa": 8402,
  "codile": 8403,
  "col": 8404,
  "colored": 8405,
  "com": 8406,
  "come": 8407,
  "comfortable": 8408,
  "con": 8409,
  "cond": 8410,
  "coon": 8411,
  "cope": 8412,
  "corn": 8413,
  "covered": 8414,
  "cream": 8415,
  "creams": 8416,
  "crow": 8417,
  "ct": 8418,
  "ction": 8419,
  "ctions": 8420,
  "ctop": 8421,
  "ctopus": 8422,
  "ctor": 8423,
  "ctory": 8424,
  "ctric": 8425,
  "cu": 8426,
  "cus": 8427,
  "cuse": 8428,
  "cused": 8429,
  "cuss": 8430,
  "cut": 8431,
  "cy": 8432,
  "cycle": 8433,
  "cycles": 8434,
  "d": 8435,
  "da": 8436,
  "dam": 8437,
  "day": 8438,
  "dd": 8439,
  "dded": 8440,
  "ddie": 8441,
  "dding": 8442,
  "ddy": 8443,
  "de": 8444,
  "ded": 8445,
  "del": 8446,
  "den": 8447,
  "der": 8448,
  "des": 8449,
  "dest": 8450,
  "dge": 8451,
  "die": 8452,
  "dies": 8453,
  "dile": 8454,
  "ding": 8455,
  "dle": 8456,
  "do": 8457,
  "dog": 8458,
  "dom": 8459,
  "dy": 8460,
  "e": 8461,
  "ead": 8462,
  "eah": 8463,
  "eal": 8464,
  "ealing": 8465,
  "ear": 8466,
  "eared": 8467,
  "ears": 8468,
  "eat": 8469,
  "eath": 8470,
  "eb": 8471,
  "ebecca": 8472,
  "ebook": 8473,
  "ebra": 8474,
  "ec": 8475,
  "ecause": 8476,
  "ecca": 8477,
  "ect": 8478,
  "ected": 8479,
  "ecting": 8480,
  "ecture": 8481,
  "ed": 8482,
  "edding": 8483,
  "eddy": 8484,
  "edic": 8485,
  "edient": 8486,
  "edn": 8487,
  "ednesday": 8488,
  "eds": 8489,
  "edy": 8490,
  "ee": 8491,
  "eed": 8492,
  "een": 8493,
  "eep": 8494,
  "eer": 8495,
  "eese": 8496,
  "eet": 8497,
  "ef": 8498,
  "ek": 8499,
  "el": 8500,
  "elcome": 8501,
  "elery": 8502,
  "elia": 8503,
  "elie": 8504,
  "elieve": 8505,
  "eling": 8506,
  "ell": 8507,
  "ella": 8508,
  "elle": 8509,
  "ellie": 8510,
  "ellig": 8511,
  "elling": 8512,
  "ello": 8513,
  "ellow": 8514,
  "elly": 8515,
  "elope": 8516,
  "elp": 8517,
  "els": 8518,
  "elt": 8519,
  "elvet": 8520,
  "ely": 8521,
  "em": 8522,
  "ember": 8523,
  "emember": 8524,
  "ement": 8525,
  "emies": 8526,
  "emma": 8527,
  "emon": 8528,
  "emy": 8529,
  "en": 8530,
  "ena": 8531,
  "ence": 8532,
  "ences": 8533,
  "end": 8534,
  "endant": 8535,
  "ended": 8536,
  "ending": 8537,
  "endy": 8538,
  "ened": 8539,
  "ening": 8540,
  "enny": 8541,
  "enry": 8542,
  "ens": 8543,
  "ense": 8544,
  "ensive": 8545,
  "ent": 8546,
  "ention": 8547,
  "ently": 8548,
  "entr": 8549,
  "ents": 8550,
  "enty": 8551,
  "eor": 8552,
  "eorge": 8553,
  "ep": 8554,
  "epend": 8555,
  "ept": 8556,
  "er": 8557,
  "era": 8558,
  "erable": 8559,
  "eration": 8560,
  "erc": 8561,
  "ere": 8562,
  "ered": 8563,
  "eremy": 8564,
  "erest": 8565,
  "erg": 8566,
  "ering": 8567,
  "erk": 8568,
  "erly": 8569,
  "erm": 8570,
  "ern": 8571,
  "ero": 8572,
  "eropl": 8573,
  "erp": 8574,
  "erpiece": 8575,
  "erpill": 8576,
  "erries": 8577,
  "erry": 8578,
  "ers": 8579,
  "ert": 8580,
  "ertain": 8581,
  "erts": 8582,
  "ery": 8583,
  "es": 8584,
  "esday": 8585,
  "esome": 8586,
  "espite": 8587,
  "ess": 8588,
  "esses": 8589,
  "essie": 8590,
  "est": 8591,
  "ester": 8592,
  "esterday": 8593,
  "et": 8594,
  "etah": 8595,
  "etch": 8596,
  "etchup": 8597,
  "ete": 8598,
  "eter": 8599,
  "eterin": 8600,
  "eterinarian": 8601,
  "eth": 8602,
  "ets": 8603,
  "etter": 8604,
  "ettle": 8605,
  "etty": 8606,
  "ety": 8607,
  "eve": 8608,
  "ever": 8609,
  "everse": 8610,
  "evin": 8611,
  "ex": 8612,
  "expected": 8613,
  "ext": 8614,
  "ey": 8615,
  "f": 8616,
  "fa": 8617,
  "fall": 8618,
  "fast": 8619,
  "father": 8620,
  "fe": 8621,
  "fere": 8622,
  "ff": 8623,
  "ffe": 8624,
  "ffee": 8625,
  "ffic": 8626,
  "fic": 8627,
  "fied": 8628,
  "fire": 8629,
  "fish": 8630,
  "fit": 8631,
  "five": 8632,
  "fived": 8633,
  "fl": 8634,
  "flowers": 8635,
  "fly": 8636,
  "fore": 8637,
  "form": 8638,
  "fort": 8639,
  "fortable": 8640,
  "fortunately": 8641,
  "found": 8642,
  "free": 8643,
  "freeze": 8644,
  "ft": 8645,
  "fted": 8646,
  "fter": 8647,
  "ful": 8648,
  "fully": 8649,
  "fus": 8650,
  "fused": 8651,
  "g": 8652,
  "gan": 8653,
  "gar": 8654,
  "ge": 8655,
  "ged": 8656,
  "gen": 8657,
  "ger": 8658,
  "gers": 8659,
  "ges": 8660,
  "gest": 8661,
  "get": 8662,
  "getable": 8663,
  "gether": 8664,
  "getic": 8665,
  "gg": 8666,
  "ggles": 8667,
  "ggy": 8668,
  "gie": 8669,
  "ging": 8670,
  "gl": 8671,
  "glasses": 8672,
  "gly": 8673,
  "go": 8674,
  "good": 8675,
  "gr": 8676,
  "ground": 8677,
  "gry": 8678,
  "gu": 8679,
  "guess": 8680,
  "gy": 8681,
  "h": 8682,
  "ha": 8683,
  "he": 8684,
  "head": 8685,
  "heart": 8686,
  "hed": 8687,
  "hee": 8688,
  "hel": 8689,
  "hello": 8690,
  "hen": 8691,
  "her": 8692,
  "here": 8693,
  "hero": 8694,
  "hes": 8695,
  "hest": 8696,
  "hett": 8697,
  "hew": 8698,
  "hi": 8699,
  "hic": 8700,
  "hile": 8701,
  "hind": 8702,
  "hing": 8703,
  "hings": 8704,
  "hip": 8705,
  "hn": 8706,
  "hny": 8707,
  "ho": 8708,
  "hog": 8709,
  "hole": 8710,
  "hood": 8711,
  "host": 8712,
  "house": 8713,
  "how": 8714,
  "ht": 8715,
  "htray": 8716,
  "htub": 8717,
  "i": 8718,
  "ia": 8719,
  "iable": 8720,
  "ial": 8721,
  "ially": 8722,
  "iam": 8723,
  "ian": 8724,
  "iant": 8725,
  "iar": 8726,
  "ib": 8727,
  "ibb": 8728,
  "ibbit": 8729,
  "ibbles": 8730,
  "ibi": 8731,
  "ible": 8732,
  "ibly": 8733,
  "ic": 8734,
  "ica": 8735,
  "icate": 8736,
  "ice": 8737,
  "iced": 8738,
  "icer": 8739,
  "ich": 8740,
  "ichael": 8741,
  "iches": 8742,
  "ici": 8743,
  "icing": 8744,
  "icious": 8745,
  "ick": 8746,
  "icked": 8747,
  "icking": 8748,
  "icky": 8749,
  "icopter": 8750,
  "icorn": 8751,
  "ict": 8752,
  "iction": 8753,
  "ictionary": 8754,
  "icy": 8755,
  "id": 8756,
  "iday": 8757,
  "iddle": 8758,
  "ide": 8759,
  "ided": 8760,
  "idence": 8761,
  "ident": 8762,
  "ider": 8763,
  "ides": 8764,
  "idey": 8765,
  "idge": 8766,
  "iding": 8767,
  "ido": 8768,
  "ids": 8769,
  "idy": 8770,
  "ie": 8771,
  "iece": 8772,
  "ied": 8773,
  "ief": 8774,
  "iel": 8775,
  "ield": 8776,
  "ien": 8777,
  "ience": 8778,
  "iens": 8779,
  "ient": 8780,
  "ier": 8781,
  "iers": 8782,
  "ies": 8783,
  "iest": 8784,
  "iet": 8785,
  "ieves": 8786,
  "iew": 8787,
  "if": 8788,
  "ife": 8789,
  "ifer": 8790,
  "iff": 8791,
  "ifi": 8792,
  "iform": 8793,
  "iful": 8794,
  "ifully": 8795,
  "ig": 8796,
  "igail": 8797,
  "igator": 8798,
  "iger": 8799,
  "igers": 8800,
  "igg": 8801,
  "igger": 8802,
  "iggie": 8803,
  "iggles": 8804,
  "iggly": 8805,
  "iggy": 8806,
  "igh": 8807,
  "ighed": 8808,
  "ighing": 8809,
  "ight": 8810,
  "ighting": 8811,
  "igi": 8812,
  "iginal": 8813,
  "ign": 8814,
  "igning": 8815,
  "igzag": 8816,
  "ik": 8817,
  "ike": 8818,
  "iki": 8819,
  "iky": 8820,
  "il": 8821,
  "ila": 8822,
  "ild": 8823,
  "ilda": 8824,
  "ile": 8825,
  "iled": 8826,
  "iles": 8827,
  "ilet": 8828,
  "iley": 8829,
  "ili": 8830,
  "iling": 8831,
  "ilities": 8832,
  "ility": 8833,
  "ilk": 8834,
  "ill": 8835,
  "illa": 8836,
  "illed": 8837,
  "illie": 8838,
  "illy": 8839,
  "ilo": 8840,
  "ilot": 8841,
  "ilt": 8842,
  "ilty": 8843,
  "ily": 8844,
  "im": 8845,
  "imal": 8846,
  "imb": 8847,
  "ime": 8848,
  "imed": 8849,
  "iment": 8850,
  "imes": 8851,
  "imi": 8852,
  "immer": 8853,
  "immering": 8854,
  "imney": 8855,
  "imon": 8856,
  "imp": 8857,
  "in": 8858,
  "ina": 8859,
  "inal": 8860,
  "inary": 8861,
  "ination": 8862,
  "ince": 8863,
  "inch": 8864,
  "ind": 8865,
  "inda": 8866,
  "indr": 8867,
  "indy": 8868,
  "ine": 8869,
  "ined": 8870,
  "ines": 8871,
  "iness": 8872,
  "ing": 8873,
  "inger": 8874,
  "ingly": 8875,
  "ingo": 8876,
  "ings": 8877,
  "ining": 8878,
  "ink": 8879,
  "inking": 8880,
  "inkle": 8881,
  "inky": 8882,
  "inny": 8883,
  "ino": 8884,
  "ins": 8885,
  "int": 8886,
  "inted": 8887,
  "iny": 8888,
  "io": 8889,
  "iolet": 8890,
  "ion": 8891,
  "iona": 8892,
  "ions": 8893,
  "ious": 8894,
  "ip": 8895,
  "ipe": 8896,
  "ipes": 8897,
  "ipment": 8898,
  "ipop": 8899,
  "ipp": 8900,
  "ipped": 8901,
  "ipper": 8902,
  "ipping": 8903,
  "ippy": 8904,
  "ips": 8905,
  "ique": 8906,
  "ir": 8907,
  "ira": 8908,
  "irac": 8909,
  "ircle": 8910,
  "ird": 8911,
  "ire": 8912,
  "ired": 8913,
  "iri": 8914,
  "irit": 8915,
  "irl": 8916,
  "irm": 8917,
  "iron": 8918,
  "irp": 8919,
  "irpy": 8920,
  "irr": 8921,
  "irrel": 8922,
  "irring": 8923,
  "irst": 8924,
  "irsty": 8925,
  "irt": 8926,
  "irth": 8927,
  "irthday": 8928,
  "irts": 8929,
  "is": 8930,
  "isa": 8931,
  "isapp": 8932,
  "isc": 8933,
  "iscuit": 8934,
  "isdom": 8935,
  "ise": 8936,
  "ised": 8937,
  "ises": 8938,
  "ish": 8939,
  "ished": 8940,
  "ishes": 8941,
  "ishing": 8942,
  "isible": 8943,
  "ising": 8944,
  "ision": 8945,
  "isions": 8946,
  "isk": 8947,
  "iskers": 8948,
  "ison": 8949,
  "isp": 8950,
  "iss": 8951,
  "issa": 8952,
  "isses": 8953,
  "ission": 8954,
  "issors": 8955,
  "ist": 8956,
  "isted": 8957,
  "isten": 8958,
  "ister": 8959,
  "istle": 8960,
  "istol": 8961,
  "istory": 8962,
  "isty": 8963,
  "isy": 8964,
  "it": 8965,
  "ita": 8966,
  "ital": 8967,
  "itch": 8968,
  "itched": 8969,
  "itches": 8970,
  "ite": 8971,
  "ited": 8972,
  "itely": 8973,
  "ites": 8974,
  "ith": 8975,
  "ither": 8976,
  "iti": 8977,
  "ities": 8978,
  "iting": 8979,
  "ition": 8980,
  "ito": 8981,
  "its": 8982,
  "itt": 8983,
  "itted": 8984,
  "itten": 8985,
  "ittens": 8986,
  "itter": 8987,
  "itting": 8988,
  "ittle": 8989,
  "itty": 8990,
  "itude": 8991,
  "ity": 8992,
  "ium": 8993,
  "iv": 8994,
  "ival": 8995,
  "ive": 8996,
  "ived": 8997,
  "iver": 8998,
  "iversity": 8999,
  "ivery": 9000,
  "ives": 9001,
  "ivi": 9002,
  "ivia": 9003,
  "iving": 9004,
  "ivity": 9005,
  "ix": 9006,
  "iz": 9007,
  "ize": 9008,
  "ized": 9009,
  "izes": 9010,
  "izing": 9011,
  "izz": 9012,
  "izza": 9013,
  "izzes": 9014,
  "izzie": 9015,
  "izzy": 9016,
  "j": 9017,
  "jam": 9018,
  "jamas": 9019,
  "ject": 9020,
  "jest": 9021,
  "jo": 9022,
  "joy": 9023,
  "joyed": 9024,
  "k": 9025,
  "kay": 9026,
  "ke": 9027,
  "ked": 9028,
  "keep": 9029,
  "keeper": 9030,
  "keepers": 9031,
  "kele": 9032,
  "keleton": 9033,
  "kelly": 9034,
  "ken": 9035,
  "kend": 9036,
  "key": 9037,
  "kin": 9038,
  "king": 9039,
  "kins": 9040,
  "kn": 9041,
  "known": 9042,
  "ky": 9043,
  "l": 9044,
  "la": 9045,
  "lace": 9046,
  "laimed": 9047,
  "laire": 9048,
  "land": 9049,
  "lay": 9050,
  "lc": 9051,
  "lcan": 9052,
  "lcano": 9053,
  "ld": 9054,
  "le": 9055,
  "lease": 9056,
  "lebr": 9057,
  "led": 9058,
  "lee": 9059,
  "leep": 9060,
  "lem": 9061,
  "len": 9062,
  "lephant": 9063,
  "ler": 9064,
  "lers": 9065,
  "les": 9066,
  "less": 9067,
  "lest": 9068,
  "let": 9069,
  "lets": 9070,
  "lew": 9071,
  "lex": 9072,
  "ley": 9073,
  "lf": 9074,
  "lied": 9075,
  "lier": 9076,
  "lies": 9077,
  "light": 9078,
  "line": 9079,
  "ling": 9080,
  "lish": 9081,
  "live": 9082,
  "ll": 9083,
  "lla": 9084,
  "llas": 9085,
  "lle": 9086,
  "lled": 9087,
  "llen": 9088,
  "llie": 9089,
  "lling": 9090,
  "llipop": 9091,
  "llo": 9092,
  "llow": 9093,
  "lls": 9094,
  "lly": 9095,
  "lo": 9096,
  "loe": 9097,
  "loo": 9098,
  "look": 9099,
  "looking": 9100,
  "lor": 9101,
  "low": 9102,
  "lower": 9103,
  "lowers": 9104,
  "lph": 9105,
  "ls": 9106,
  "lt": 9107,
  "lter": 9108,
  "lu": 9109,
  "luffy": 9110,
  "lves": 9111,
  "ly": 9112,
  "lyn": 9113,
  "m": 9114,
  "ma": 9115,
  "man": 9116,
  "mare": 9117,
  "mas": 9118,
  "match": 9119,
  "mates": 9120,
  "mb": 9121,
  "mbers": 9122,
  "mble": 9123,
  "mbre": 9124,
  "me": 9125,
  "med": 9126,
  "medi": 9127,
  "mediately": 9128,
  "mel": 9129,
  "men": 9130,
  "mend": 9131,
  "ment": 9132,
  "ments": 9133,
  "meow": 9134,
  "mer": 9135,
  "mered": 9136,
  "mers": 9137,
  "met": 9138,
  "mie": 9139,
  "mies": 9140,
  "mine": 9141,
  "ming": 9142,
  "mm": 9143,
  "more": 9144,
  "most": 9145,
  "mother": 9146,
  "munk": 9147,
  "my": 9148,
  "n": 9149,
  "na": 9150,
  "nam": 9151,
  "nament": 9152,
  "nce": 9153,
  "nd": 9154,
  "nded": 9155,
  "nder": 9156,
  "ndma": 9157,
  "ndpa": 9158,
  "ne": 9159,
  "neath": 9160,
  "ned": 9161,
  "ner": 9162,
  "ners": 9163,
  "ness": 9164,
  "net": 9165,
  "ney": 9166,
  "ng": 9167,
  "nger": 9168,
  "nic": 9169,
  "nie": 9170,
  "nies": 9171,
  "night": 9172,
  "ning": 9173,
  "njoy": 9174,
  "nn": 9175,
  "nna": 9176,
  "no": 9177,
  "noon": 9178,
  "not": 9179,
  "nt": 9180,
  "ntil": 9181,
  "ny": 9182,
  "o": 9183,
  "ob": 9184,
  "obile": 9185,
  "obody": 9186,
  "oby": 9187,
  "oc": 9188,
  "ocer": 9189,
  "oceros": 9190,
  "ock": 9191,
  "ocked": 9192,
  "ocular": 9193,
  "ody": 9194,
  "oe": 9195,
  "oey": 9196,
  "of": 9197,
  "off": 9198,
  "og": 9199,
  "oga": 9200,
  "oger": 9201,
  "oggy": 9202,
  "ogn": 9203,
  "ogo": 9204,
  "oh": 9205,
  "oin": 9206,
  "oke": 9207,
  "ol": 9208,
  "ola": 9209,
  "old": 9210,
  "olin": 9211,
  "oline": 9212,
  "oll": 9213,
  "olly": 9214,
  "olog": 9215,
  "om": 9216,
  "oman": 9217,
  "omas": 9218,
  "omb": 9219,
  "ome": 9220,
  "omed": 9221,
  "omeday": 9222,
  "omes": 9223,
  "omet": 9224,
  "oming": 9225,
  "ommend": 9226,
  "omobile": 9227,
  "omp": 9228,
  "on": 9229,
  "ond": 9230,
  "one": 9231,
  "ones": 9232,
  "onest": 9233,
  "oney": 9234,
  "ong": 9235,
  "ongrat": 9236,
  "ongratul": 9237,
  "oni": 9238,
  "onies": 9239,
  "onna": 9240,
  "onnie": 9241,
  "ons": 9242,
  "ont": 9243,
  "ony": 9244,
  "oo": 9245,
  "ood": 9246,
  "oof": 9247,
  "ook": 9248,
  "ooks": 9249,
  "ooky": 9250,
  "ool": 9251,
  "oom": 9252,
  "oomy": 9253,
  "oon": 9254,
  "oop": 9255,
  "oor": 9256,
  "oose": 9257,
  "oosh": 9258,
  "oot": 9259,
  "op": 9260,
  "ope": 9261,
  "opes": 9262,
  "oph": 9263,
  "ophia": 9264,
  "ophie": 9265,
  "ophone": 9266,
  "opl": 9267,
  "ople": 9268,
  "oppy": 9269,
  "ops": 9270,
  "opter": 9271,
  "or": 9272,
  "ora": 9273,
  "oral": 9274,
  "ord": 9275,
  "order": 9276,
  "ordinary": 9277,
  "ore": 9278,
  "ored": 9279,
  "ores": 9280,
  "ories": 9281,
  "oring": 9282,
  "ork": 9283,
  "orking": 9284,
  "orm": 9285,
  "ormous": 9286,
  "orn": 9287,
  "orrow": 9288,
  "orry": 9289,
  "ors": 9290,
  "orse": 9291,
  "orsie": 9292,
  "ort": 9293,
  "orted": 9294,
  "orter": 9295,
  "orth": 9296,
  "ortunately": 9297,
  "ory": 9298,
  "os": 9299,
  "osaur": 9300,
  "oscope": 9301,
  "ose": 9302,
  "osed": 9303,
  "osen": 9304,
  "osity": 9305,
  "oss": 9306,
  "ossible": 9307,
  "ost": 9308,
  "ot": 9309,
  "ote": 9310,
  "oth": 9311,
  "other": 9312,
  "othy": 9313,
  "otion": 9314,
  "oto": 9315,
  "ots": 9316,
  "ott": 9317,
  "otte": 9318,
  "otten": 9319,
  "otter": 9320,
  "ou": 9321,
  "ouch": 9322,
  "ouched": 9323,
  "oud": 9324,
  "oug": 9325,
  "ough": 9326,
  "ought": 9327,
  "ould": 9328,
  "oun": 9329,
  "ounce": 9330,
  "ounced": 9331,
  "ound": 9332,
  "ount": 9333,
  "ountain": 9334,
  "oup": 9335,
  "ouquet": 9336,
  "our": 9337,
  "ouraged": 9338,
  "ourn": 9339,
  "ours": 9340,
  "ous": 9341,
  "ouse": 9342,
  "ousy": 9343,
  "out": 9344,
  "outh": 9345,
  "ove": 9346,
  "oved": 9347,
  "over": 9348,
  "ow": 9349,
  "owed": 9350,
  "ower": 9351,
  "owl": 9352,
  "own": 9353,
  "oy": 9354,
  "oys": 9355,
  "p": 9356,
  "pa": 9357,
  "pack": 9358,
  "pan": 9359,
  "par": 9360,
  "parent": 9361,
  "pe": 9362,
  "pec": 9363,
  "pect": 9364,
  "pected": 9365,
  "pecting": 9366,
  "ped": 9367,
  "pen": 9368,
  "per": 9369,
  "pes": 9370,
  "ph": 9371,
  "phant": 9372,
  "pid": 9373,
  "pit": 9374,
  "pite": 9375,
  "pl": 9376,
  "place": 9377,
  "plash": 9378,
  "play": 9379,
  "please": 9380,
  "po": 9381,
  "poison": 9382,
  "pop": 9383,
  "port": 9384,
  "pot": 9385,
  "pp": 9386,
  "pped": 9387,
  "pper": 9388,
  "ppers": 9389,
  "ppies": 9390,
  "pping": 9391,
  "ppy": 9392,
  "pr": 9393,
  "pril": 9394,
  "prin": 9395,
  "prints": 9396,
  "pt": 9397,
  "pted": 9398,
  "q": 9399,
  "qu": 9400,
  "quake": 9401,
  "que": 9402,
  "quest": 9403,
  "quet": 9404,
  "quito": 9405,
  "r": 9406,
  "ra": 9407,
  "rac": 9408,
  "racadabra": 9409,
  "ract": 9410,
  "racted": 9411,
  "rag": 9412,
  "rage": 9413,
  "raged": 9414,
  "ragile": 9415,
  "ragon": 9416,
  "raid": 9417,
  "rance": 9418,
  "rap": 9419,
  "rass": 9420,
  "rat": 9421,
  "ray": 9422,
  "re": 9423,
  "read": 9424,
  "ready": 9425,
  "ream": 9426,
  "reat": 9427,
  "rec": 9428,
  "reci": 9429,
  "rect": 9430,
  "red": 9431,
  "ree": 9432,
  "reed": 9433,
  "reek": 9434,
  "reen": 9435,
  "reeze": 9436,
  "reg": 9437,
  "rel": 9438,
  "ren": 9439,
  "rench": 9440,
  "render": 9441,
  "rent": 9442,
  "repe": 9443,
  "repeat": 9444,
  "res": 9445,
  "ress": 9446,
  "resses": 9447,
  "rest": 9448,
  "ret": 9449,
  "retch": 9450,
  "retty": 9451,
  "reverse": 9452,
  "rew": 9453,
  "rework": 9454,
  "rey": 9455,
  "ri": 9456,
  "riage": 9457,
  "rian": 9458,
  "ric": 9459,
  "ricane": 9460,
  "rick": 9461,
  "rie": 9462,
  "ried": 9463,
  "riend": 9464,
  "riends": 9465,
  "rier": 9466,
  "ries": 9467,
  "rig": 9468,
  "riger": 9469,
  "rigerator": 9470,
  "right": 9471,
  "rigued": 9472,
  "rill": 9473,
  "rilliant": 9474,
  "rily": 9475,
  "rin": 9476,
  "ring": 9477,
  "rink": 9478,
  "rious": 9479,
  "ris": 9480,
  "rise": 9481,
  "river": 9482,
  "rm": 9483,
  "rmomet": 9484,
  "rmometer": 9485,
  "rn": 9486,
  "rnie": 9487,
  "ro": 9488,
  "rob": 9489,
  "robe": 9490,
  "rod": 9491,
  "roken": 9492,
  "rom": 9493,
  "romise": 9494,
  "ron": 9495,
  "rons": 9496,
  "room": 9497,
  "rophone": 9498,
  "ror": 9499,
  "rosc": 9500,
  "roscope": 9501,
  "ross": 9502,
  "rosty": 9503,
  "rot": 9504,
  "rough": 9505,
  "round": 9506,
  "row": 9507,
  "rr": 9508,
  "rrr": 9509,
  "rs": 9510,
  "rum": 9511,
  "rup": 9512,
  "ry": 9513,
  "s": 9514,
  "sa": 9515,
  "saw": 9516,
  "sc": 9517,
  "scape": 9518,
  "scar": 9519,
  "screen": 9520,
  "se": 9521,
  "sed": 9522,
  "seek": 9523,
  "self": 9524,
  "selves": 9525,
  "seph": 9526,
  "sequ": 9527,
  "ser": 9528,
  "sers": 9529,
  "ses": 9530,
  "sess": 9531,
  "set": 9532,
  "seum": 9533,
  "sey": 9534,
  "sh": 9535,
  "shadow": 9536,
  "shaped": 9537,
  "shine": 9538,
  "ship": 9539,
  "shm": 9540,
  "shmallow": 9541,
  "side": 9542,
  "sie": 9543,
  "sing": 9544,
  "sit": 9545,
  "sity": 9546,
  "sm": 9547,
  "smelling": 9548,
  "sn": 9549,
  "snap": 9550,
  "so": 9551,
  "sol": 9552,
  "solut": 9553,
  "solutely": 9554,
  "son": 9555,
  "sorry": 9556,
  "sp": 9557,
  "spec": 9558,
  "specially": 9559,
  "ss": 9560,
  "sses": 9561,
  "ssess": 9562,
  "ssible": 9563,
  "ssss": 9564,
  "ssy": 9565,
  "st": 9566,
  "stairs": 9567,
  "stalk": 9568,
  "stand": 9569,
  "stead": 9570,
  "step": 9571,
  "steps": 9572,
  "ster": 9573,
  "sters": 9574,
  "stic": 9575,
  "stick": 9576,
  "stop": 9577,
  "storm": 9578,
  "str": 9579,
  "stri": 9580,
  "sty": 9581,
  "sw": 9582,
  "sy": 9583,
  "t": 9584,
  "tain": 9585,
  "te": 9586,
  "ted": 9587,
  "ten": 9588,
  "ter": 9589,
  "tern": 9590,
  "ters": 9591,
  "th": 9592,
  "tha": 9593,
  "thank": 9594,
  "that": 9595,
  "the": 9596,
  "ther": 9597,
  "thing": 9598,
  "this": 9599,
  "though": 9600,
  "ths": 9601,
  "thy": 9602,
  "time": 9603,
  "ting": 9604,
  "tle": 9605,
  "to": 9606,
  "tock": 9607,
  "ton": 9608,
  "ts": 9609,
  "tt": 9610,
  "tuce": 9611,
  "ture": 9612,
  "ty": 9613,
  "u": 9614,
  "ual": 9615,
  "ually": 9616,
  "ub": 9617,
  "ubby": 9618,
  "ube": 9619,
  "uc": 9620,
  "uce": 9621,
  "ucet": 9622,
  "uch": 9623,
  "uck": 9624,
  "ucked": 9625,
  "uckily": 9626,
  "ucky": 9627,
  "uct": 9628,
  "uctantly": 9629,
  "ucture": 9630,
  "ucy": 9631,
  "ud": 9632,
  "udd": 9633,
  "udden": 9634,
  "uddenly": 9635,
  "uddles": 9636,
  "uddy": 9637,
  "ude": 9638,
  "udge": 9639,
  "udged": 9640,
  "udy": 9641,
  "ue": 9642,
  "ued": 9643,
  "ueen": 9644,
  "uel": 9645,
  "ues": 9646,
  "uesday": 9647,
  "uess": 9648,
  "uest": 9649,
  "uff": 9650,
  "uffin": 9651,
  "uffy": 9652,
  "ug": 9653,
  "ugar": 9654,
  "ugg": 9655,
  "uggage": 9656,
  "ugged": 9657,
  "ugging": 9658,
  "uggles": 9659,
  "uing": 9660,
  "uit": 9661,
  "uke": 9662,
  "ul": 9663,
  "ula": 9664,
  "ular": 9665,
  "ulb": 9666,
  "ulf": 9667,
  "ulif": 9668,
  "ull": 9669,
  "ully": 9670,
  "ulp": 9671,
  "ulpture": 9672,
  "ult": 9673,
  "ults": 9674,
  "ulu": 9675,
  "uly": 9676,
  "um": 9677,
  "umb": 9678,
  "umber": 9679,
  "umbers": 9680,
  "umble": 9681,
  "umbled": 9682,
  "umbling": 9683,
  "ume": 9684,
  "umes": 9685,
  "umm": 9686,
  "ummer": 9687,
  "ummies": 9688,
  "ummy": 9689,
  "ump": 9690,
  "umpet": 9691,
  "umpy": 9692,
  "un": 9693,
  "una": 9694,
  "unately": 9695,
  "unch": 9696,
  "unched": 9697,
  "und": 9698,
  "unday": 9699,
  "under": 9700,
  "undred": 9701,
  "une": 9702,
  "unes": 9703,
  "ung": 9704,
  "ungle": 9705,
  "unity": 9706,
  "unk": 9707,
  "unn": 9708,
  "unnel": 9709,
  "unnies": 9710,
  "unny": 9711,
  "uno": 9712,
  "unt": 9713,
  "up": 9714,
  "uper": 9715,
  "upid": 9716,
  "uppy": 9717,
  "ups": 9718,
  "upt": 9719,
  "ur": 9720,
  "urb": 9721,
  "urch": 9722,
  "ure": 9723,
  "ured": 9724,
  "uring": 9725,
  "urious": 9726,
  "urity": 9727,
  "urkey": 9728,
  "urn": 9729,
  "urnit": 9730,
  "urniture": 9731,
  "urp": 9732,
  "urple": 9733,
  "urpr": 9734,
  "urrender": 9735,
  "urricane": 9736,
  "urry": 9737,
  "urse": 9738,
  "urt": 9739,
  "us": 9740,
  "usan": 9741,
  "use": 9742,
  "used": 9743,
  "uses": 9744,
  "ush": 9745,
  "ushed": 9746,
  "ushes": 9747,
  "ushing": 9748,
  "usia": 9749,
  "usie": 9750,
  "using": 9751,
  "usion": 9752,
  "ust": 9753,
  "usted": 9754,
  "uster": 9755,
  "ustr": 9756,
  "usty": 9757,
  "ut": 9758,
  "ute": 9759,
  "utes": 9760,
  "uth": 9761,
  "utor": 9762,
  "utter": 9763,
  "uxu": 9764,
  "uzz": 9765,
  "v": 9766,
  "va": 9767,
  "val": 9768,
  "vant": 9769,
  "vator": 9770,
  "ve": 9771,
  "veal": 9772,
  "ved": 9773,
  "vel": 9774,
  "ven": 9775,
  "venir": 9776,
  "vent": 9777,
  "ventually": 9778,
  "ver": 9779,
  "vered": 9780,
  "vering": 9781,
  "vers": 9782,
  "verse": 9783,
  "very": 9784,
  "ves": 9785,
  "vest": 9786,
  "vet": 9787,
  "vice": 9788,
  "vin": 9789,
  "ving": 9790,
  "vision": 9791,
  "vous": 9792,
  "vroom": 9793,
  "vy": 9794,
  "w": 9795,
  "walk": 9796,
  "war": 9797,
  "ward": 9798,
  "wards": 9799,
  "was": 9800,
  "washer": 9801,
  "water": 9802,
  "way": 9803,
  "ways": 9804,
  "we": 9805,
  "web": 9806,
  "weed": 9807,
  "ween": 9808,
  "weet": 9809,
  "wel": 9810,
  "welcome": 9811,
  "well": 9812,
  "wh": 9813,
  "what": 9814,
  "where": 9815,
  "while": 9816,
  "why": 9817,
  "wise": 9818,
  "wk": 9819,
  "work": 9820,
  "working": 9821,
  "worm": 9822,
  "x": 9823,
  "xible": 9824,
  "xt": 9825,
  "xu": 9826,
  "xy": 9827,
  "xygen": 9828,
  "y": 9829,
  "yal": 9830,
  "yan": 9831,
  "yard": 9832,
  "yd": 9833,
  "ye": 9834,
  "year": 9835,
  "years": 9836,
  "yes": 9837,
  "ying": 9838,
  "yl": 9839,
  "yle": 9840,
  "yler": 9841,
  "ym": 9842,
  "yond": 9843,
  "you": 9844,
  "yth": 9845,
  "ythm": 9846,
  "z": 9847,
  "zag": 9848,
  "ze": 9849,
  "zed": 9850,
  "zen": 9851,
  "zes": 9852,
  "zie": 9853,
  "zing": 9854,
  "zoom": 9855,
  "zy": 9856,
  "zz": 9857,
  "zzy": 9858,
  "{": 9859,
  "|": 9860,
  "}": 9861,
  "~": 9862,
  "ġ": 9863,
  "Ģ": 9864,
  "ģ": 9865,
  "Ĥ": 9866,
  "ĥ": 9867,
  "Ħ": 9868,
  "ħ": 9869,
  "Ĩ": 9870,
  "ĩ": 9871,
  "Ī": 9872,
  "ī": 9873,
  "Ĭ": 9874,
  "ĭ": 9875,
  "Į": 9876,
  "į": 9877,
  "İ": 9878,
  "ı": 9879,
  "Ĳ": 9880,
  "ĳ": 9881,
  "Ĵ": 9882,
  "ĵ": 9883,
  "Ķ": 9884,
  "ķ": 9885,
  "ĸ": 9886,
  "Ĺ": 9887,
  "ĺ": 9888,
  "Ļ": 9889,
  "ļ": 9890,
  "Ľ": 9891,
  "ľ": 9892,
  "Ŀ": 9893,
  "ŀ": 9894,
  "Ł": 9895,
  "ł": 9896,
  "¡": 9897,
  "¢": 9898,
  "£": 9899,
  "¤": 9900,
  "¥": 9901,
  "¦": 9902,
  "§": 9903,
  "¨": 9904,
  "©": 9905,
  "ª": 9906,
  "«": 9907,
  "¬": 9908,
  "Ń": 9909,
  "®": 9910,
  "¯": 9911,
  "°": 9912,
  "±": 9913,
  "²": 9914,
  "³": 9915,
  "´": 9916,
  "µ": 9917,
  "¶": 9918,
  "·": 9919,
  "¸": 9920,
  "¹": 9921,
  "º": 9922,
  "»": 9923,
  "¼": 9924,
  "½": 9925,
  "¾": 9926,
  "¿": 9927,
  "À": 9928,
  "Á": 9929,
  "Â": 9930,
  "Ã": 9931,
  "Ä": 9932,
  "Å": 9933,
  "Æ": 9934,
  "Ç": 9935,
  "È": 9936,
  "É": 9937,
  "Ê": 9938,
  "Ë": 9939,
  "Ì": 9940,
  "Í": 9941,
  "Î": 9942,
  "Ï": 9943,
  "Ð": 9944,
  "Ñ": 9945,
  "Ò": 9946,
  "Ó": 9947,
  "Ô": 9948,
  "Õ": 9949,
  "Ö": 9950,
  "×": 9951,
  "Ø": 9952,
  "Ù": 9953,
  "Ú": 9954,
  "Û": 9955,
  "Ü": 9956,
  "Ý": 9957,
  "Þ": 9958,
  "ß": 9959,
  "à": 9960,
  "á": 9961,
  "â": 9962,
  "âĢ": 9963,
  "âĢĶ": 9964,
  "âĢĻ": 9965,
  "âĢľ": 9966,
  "âĢĿ": 9967,
  "âĢĿ,": 9968,
  "âĢĿ.": 9969,
  "âĢ¦": 9970,
  "ã": 9971,
  "ä": 9972,
  "å": 9973,
  "æ": 9974,
  "ç": 9975,
  "è": 9976,
  "é": 9977,
  "ê": 9978,
  "ë": 9979,
  "ì": 9980,
  "í": 9981,
  "î": 9982,
  "ï": 9983,
  "ð": 9984,
  "ñ": 9985,
  "ò": 9986,
  "ó": 9987,
  "ô": 9988,
  "õ": 9989,
  "ö": 9990,
  "÷": 9991,
  "ø": 9992,
  "ù": 9993,
  "ú": 9994,
  "û": 9995,
  "ü": 9996,
  "ý": 9997,
  "þ": 9998,
  "ÿ": 9999
}